{"poin": 9074, "nectar</w>": 33683, "meade</w>": 37218, "highland": 32244, "ards</w>": 1654, "raquel</w>": 44338, "researching</w>": 24544, "ë¹": 24193, "idol": 24866, "cpi</w>": 41795, "aldub": 10532, "bench": 17770, "shampoo</w>": 23944, "wti</w>": 47345, "registrations</w>": 38423, "weeksary</w>": 24628, "ðŁĴĻðŁĴĽ</w>": 26230, "coastguard</w>": 40601, "dayton</w>": 20262, "nature</w>": 2625, "mgs</w>": 48073, "mozz": 26317, "opy</w>": 21835, "unto</w>": 19801, "region": 16542, "losangeles</w>": 14638, "engul": 43655, "rog</w>": 34017, "composing</w>": 40412, "front": 10996, "eeeeee</w>": 41407, "doodled</w>": 41030, "afl": 15132, "node": 31434, "minis</w>": 35976, "albany</w>": 17359, "apprentices</w>": 38252, "starmagic": 48023, "ood": 16429, "siber": 22206, "findyourpark</w>": 38924, "dar": 1377, "juniper</w>": 33829, "stn</w>": 27175, "luxembourg</w>": 23949, "thr": 1111, "gusty</w>": 27589, "delft</w>": 42749, "legg</w>": 32511, "insul": 9615, "by</w>": 638, "monopoly</w>": 25241, "tremb": 44043, "cab</w>": 11912, "tenay</w>": 45384, "travellers</w>": 29583, "forgets</w>": 35613, "elove": 43319, "fv": 29795, "rosen</w>": 36424, "terrorist</w>": 10575, "lawyers</w>": 14232, "shenzhen</w>": 38970, "oun": 636, "dinner": 27548, "wid</w>": 20886, "himach": 29132, "prospec": 12693, "earp</w>": 35296, "stics</w>": 5449, "mildly</w>": 49059, "Â°": 21305, "glio</w>": 29785, "redvelvet</w>": 41845, "prayfor": 18443, "puppy": 25431, "stevie</w>": 18969, "Ø¨</w>": 35330, "seed": 14064, "alcoholic</w>": 25098, "aqua</w>": 18613, "armenia</w>": 22008, "marking</w>": 14705, "agenda</w>": 8728, "limited</w>": 3472, "lowell</w>": 24458, "okanagan</w>": 43233, "titans</w>": 13066, "avo": 4496, "mandu</w>": 31440, "repair</w>": 8419, "asen": 41085, "sainsbury</w>": 45879, "shann": 9932, "glamour": 42876, "alana</w>": 43405, "meteor": 26429, "awhile</w>": 19171, "bab</w>": 19039, "brett</w>": 12394, "boon": 24979, "sored</w>": 6731, "ount": 43801, "rotation</w>": 18089, "mid": 2192, "kstate": 48590, "dorchester</w>": 32656, "loff</w>": 31008, "broward</w>": 34719, "jj</w>": 12790, "gent</w>": 7139, "wasps</w>": 35300, "gham": 21456, "weg": 47867, "controlling</w>": 26427, "richi": 38934, "happiest</w>": 13811, "brink": 39296, "alternati": 16699, "imagined</w>": 18478, "photo</w>": 1125, "brier</w>": 43995, "bunnies</w>": 28998, "ate</w>": 671, "fus</w>": 18419, "anit": 23683, "asin</w>": 44347, "starts</w>": 3105, "nae</w>": 19374, "mothers</w>": 10546, "tomp": 43544, "avoids</w>": 48220, "diversion</w>": 38457, "swift</w>": 8229, "manning</w>": 15996, "tl</w>": 8190, "acknowle": 18100, "power": 2789, "minster</w>": 11189, "hugging</w>": 27058, "vortex</w>": 30071, "stopp": 15738, "employe": 5037, "asap</w>": 10822, "tuberculosis</w>": 43129, "matsu": 30242, "median</w>": 30491, "ðŁĮ±": 35318, "hl": 8297, "jum": 20791, "rendon</w>": 46272, "ce</w>": 629, "rapids</w>": 18848, "insky</w>": 24607, "guns</w>": 7591, "specimens</w>": 42715, "hoseok</w>": 38817, "santi": 13856, "ether": 23349, "vable</w>": 23088, "bakar</w>": 41414, "monumental</w>": 31297, "muster</w>": 47361, "simply</w>": 6151, "puffy</w>": 49245, "atti</w>": 16235, "revealing</w>": 21321, "saha": 36062, "mounts</w>": 36767, "mix</w>": 3285, "viswas": 36513, "wee": 716, "walkin</w>": 45792, "wsbtv</w>": 38394, "scallo": 19936, "thepersonalnetwork</w>": 30016, "semifinal</w>": 22935, "traditions</w>": 18016, "prophets</w>": 39441, "traitor</w>": 31760, "dedly</w>": 36204, "ptc</w>": 44646, "consent</w>": 21922, "grove": 31756, "kool</w>": 26444, "wildfires</w>": 29184, "mainland</w>": 27629, "extended</w>": 9614, "ðŁĶĺ</w>": 38995, "infinity": 34863, "tuner</w>": 42905, "incorrect</w>": 31872, "huntsville</w>": 34544, "ignored</w>": 20428, "agame</w>": 46943, "womenintech</w>": 31470, "urstrulymahesh</w>": 35314, "wawx</w>": 47387, "shabbat</w>": 38042, "coasters</w>": 31548, "constitutional</w>": 16091, "aspe": 10894, "hilli": 32513, "eyebrow</w>": 34250, "bas</w>": 11420, "rolex</w>": 21093, "shopp": 38486, "graduates</w>": 12236, "northampton": 49246, "â¤": 25087, "ite</w>": 802, "agreements</w>": 25865, "travelled</w>": 23428, "paulson</w>": 48201, "tek</w>": 18294, "momentum</w>": 15722, "unstopp": 22105, "crow</w>": 16019, "donaldson</w>": 37783, "rens</w>": 18183, "wwe</w>": 5290, "squad": 13892, "foy</w>": 30284, "âĺºâĺº</w>": 46051, "chers</w>": 5789, "navajo</w>": 35523, "filmed</w>": 15801, "psychi": 18147, "decked</w>": 39096, "southsudan</w>": 30419, "dheim</w>": 44280, "tammy</w>": 28396, "eminent</w>": 33779, "gha": 10010, "assignments</w>": 34257, "jor</w>": 31595, "jiang": 43309, "puff": 44477, "adel</w>": 27308, "oooooooo": 15473, "anand</w>": 22083, "brisban": 30431, "indy</w>": 10098, "blanchard</w>": 40177, "wozni": 47782, "bes</w>": 3635, "omy": 40805, "sel</w>": 4098, "sins</w>": 9345, "utilized</w>": 47604, "sem</w>": 17106, "unbeliev": 11383, "margin</w>": 21357, "honore": 25868, "ðŁ¤¤": 39550, "tools</w>": 5771, "yankee</w>": 21554, "ost</w>": 18749, "ãĥ³": 17671, "cincode": 40930, "coy</w>": 15742, "ber</w>": 1516, "enc</w>": 33169, "greed</w>": 26147, "battle</w>": 3528, "requesting</w>": 33245, "grandmother</w>": 17469, "table": 12108, "nasa</w>": 6841, "stack</w>": 11257, "iggy": 46219, "europarl</w>": 44922, "hamper</w>": 27692, "exposure</w>": 11903, "sensory</w>": 21831, "mbo": 25733, "laurel</w>": 19942, "ane": 5846, "pineapple</w>": 14831, "merely</w>": 28718, "recreating</w>": 48224, "twentyon": 39609, "hum": 5823, "head": 1603, "origin": 2555, "zam</w>": 41578, "penned</w>": 45077, "inspect</w>": 40815, "ì£": 39856, "give": 4120, "rett": 41082, "tura</w>": 16127, "galore</w>": 22286, "decla": 10739, "starplus</w>": 37815, "backed</w>": 12721, "aboo</w>": 42433, "rescheduled</w>": 43553, "finger</w>": 8895, "bigbang</w>": 23734, "leen": 35311, "comedian</w>": 13848, "level</w>": 2931, "tomb": 37187, "eha</w>": 48563, "outsider</w>": 41196, "vic</w>": 4412, "knit": 18745, "tic": 890, "sqm</w>": 47978, "centri": 30872, "daytona</w>": 16335, "mss</w>": 48610, "rhapso": 32532, "eem</w>": 27236, "cognac</w>": 44361, "unborn</w>": 37257, "panini</w>": 30410, "cester</w>": 12718, "fgo</w>": 46113, "nonprofit</w>": 19315, "âŀ¡ï¸ı": 31860, "zt</w>": 42629, "grime</w>": 37101, "ðŁ¤¯</w>": 37595, "dynamite</w>": 29003, "troop": 12492, "sosa</w>": 45433, "carly": 23166, "vette</w>": 17045, "pott": 28698, "completely</w>": 5989, "sundaywith": 26469, "strip</w>": 9317, "september</w>": 3707, "stockport</w>": 35569, "sidekick</w>": 44683, "sanitation</w>": 25414, "public</w>": 2122, "god": 4190, "kies": 36601, "grits</w>": 44307, "trust</w>": 3876, "missin</w>": 36209, "diocese</w>": 27091, "ratt</w>": 34785, "insanity</w>": 26645, "pedic": 35319, "breakup</w>": 38931, "diabetes</w>": 10319, "mble</w>": 4756, "loona</w>": 48137, "main</w>": 2623, "benitez</w>": 46711, "built": 45824, "affili": 12120, "azon</w>": 36854, "stips</w>": 44756, "happiness</w>": 5096, "salvage</w>": 33131, "filth</w>": 39713, "remnants</w>": 39032, "grazing</w>": 29889, "bumble": 25585, "pioneers</w>": 22383, "cnc</w>": 20571, "sneaker": 31698, "everton</w>": 13315, "hatched</w>": 42158, "steven": 10973, "moz": 14761, "toile": 43148, "care</w>": 1776, "state</w>": 1295, "cnet</w>": 47487, "backers</w>": 32934, "probation</w>": 36531, "kn": 4825, "gori": 12461, "tier": 14390, "universi": 41692, "omf</w>": 47496, "powering</w>": 16231, "modular</w>": 22437, "teng</w>": 28474, "filtr": 21408, "hesitate</w>": 34967, "conscious</w>": 14914, "bellator</w>": 31985, "colin</w>": 10238, "wise": 19116, "flav": 7191, "ann": 850, "lain": 46958, "negligence</w>": 45658, "nurse</w>": 10058, "(*</w>": 39575, "optimist</w>": 44581, "ardo</w>": 9394, "drafts</w>": 29194, "cared</w>": 27675, "indianapolis</w>": 17196, "icu</w>": 30443, "steroids</w>": 37670, "dnb</w>": 35422, "chyna</w>": 43398, "paula": 37363, "azu": 27701, "rot</w>": 9643, "hyatt</w>": 25146, "ctive</w>": 9313, "salis": 20667, "meteorologist</w>": 42849, "confess</w>": 38860, "masterclass</w>": 17529, "ðŁĴªðŁĴª</w>": 24747, "prompted</w>": 45746, "sabbath</w>": 26008, "normally</w>": 15870, "ricotta</w>": 38473, "transpa": 18524, "rrrr</w>": 34444, "snapmatic</w>": 45907, "pennsylvania</w>": 13673, "wynonnaearp</w>": 43755, "jessic": 14881, "shaping</w>": 18632, "ðŁĳĩðŁı»</w>": 32813, "stom</w>": 38068, "dou": 1756, "parte</w>": 48508, "font": 37610, "naughty": 47255, "settlers</w>": 35671, "badminton</w>": 21412, "cabaret</w>": 26263, "earle</w>": 40292, "niro</w>": 47373, "matologist</w>": 48842, "paragon</w>": 48099, "À": 124, "every": 1091, "hong": 12144, "aust</w>": 25418, "penny": 20400, "cz": 22898, "backstage</w>": 9236, "bcci</w>": 36138, "seared</w>": 29727, "secretary</w>": 6552, "fey": 39069, "zh</w>": 41621, "launcher</w>": 35782, "fragile</w>": 23579, "perfecto</w>": 42898, "ders</w>": 1923, "vitz</w>": 26188, "lu</w>": 9657, "occasionally</w>": 32479, "mami</w>": 43858, "mythical</w>": 34377, "third</w>": 3981, "ðŁĴĢðŁĴĢ": 30884, "enting</w>": 20526, "seized</w>": 15826, "welcome": 18318, "accurately</w>": 24206, "mathews</w>": 37120, "mouths</w>": 38518, "clancy</w>": 37227, "kees</w>": 10791, "salam": 19007, "thin</w>": 7847, "esq</w>": 47352, "chia</w>": 19147, "equal": 17373, "courtesy</w>": 5228, "sales</w>": 3765, "spirits</w>": 13192, "cr": 1075, "offering</w>": 6896, "dusk</w>": 19708, "monaghan</w>": 39797, "magnum</w>": 23496, "alach": 24622, "railway": 27614, "stant</w>": 4906, "rasheed</w>": 41638, "brushed</w>": 30298, "kenyans</w>": 36263, "wilton</w>": 46638, "banging</w>": 33033, "panic": 46671, "arina</w>": 29271, "collective</w>": 10162, "dicap": 30023, "stitch": 30003, "eleng": 48180, "cinemato": 21919, "alies</w>": 38086, "mies</w>": 8840, "raman</w>": 39816, "shiva</w>": 21174, "siob": 40954, "gna</w>": 23009, "sud": 8067, "erson": 25780, "qotd</w>": 24504, "containing</w>": 20281, "albania</w>": 29170, "sohn</w>": 49267, "ssr</w>": 39880, "kawhi</w>": 41220, "ges</w>": 3316, "mqm</w>": 24687, "covington</w>": 43196, "darn</w>": 26059, "lyle</w>": 36828, "jaden</w>": 37174, "tell": 16069, "revitalization</w>": 46923, "clou": 4069, "representatives</w>": 15591, "create</w>": 3380, "carrick</w>": 44052, "keychain</w>": 31050, "ironic</w>": 24518, "appleton</w>": 45250, "callaway</w>": 42596, "strongly</w>": 15507, "cen": 1306, "configu": 46746, "spar</w>": 34576, "settled</w>": 18310, "karla</w>": 42309, "mercede": 34959, "invigor": 48722, "photos</w>": 2479, "extension</w>": 10275, "high": 1487, "cayenne</w>": 43650, "ðŁĺĿ</w>": 12970, "expose</w>": 23181, "asus</w>": 27269, "evidence</w>": 6439, "human": 3175, "spiritual": 46076, "menopause</w>": 46026, "hatch</w>": 17809, "androidgames</w>": 46572, "schem": 17720, "there": 5283, "acking</w>": 5515, "somme</w>": 30625, "resign</w>": 23584, "miko</w>": 35413, "windy</w>": 13446, "newor": 25969, "vv": 19264, "tmund</w>": 23801, "something</w>": 2006, "fra": 3368, "anthony": 17477, "nightout</w>": 44257, "somal": 40281, "antibio": 18954, "crypto": 8080, "littlest</w>": 48969, "disagree</w>": 23199, "zagre": 34107, "asks</w>": 7953, "cani": 35592, "antly</w>": 5265, "reau</w>": 32398, "elan</w>": 18399, "isu": 17030, "lowing</w>": 8283, "luscious</w>": 39935, "wot</w>": 24863, "solent</w>": 47783, "vixen</w>": 38757, "ðŁĲ±</w>": 22979, "khu": 14041, "proposes</w>": 27133, "slowed</w>": 43793, "contained</w>": 23836, "narcis": 25229, "mahesh</w>": 22095, "inspire": 27901, "destroying</w>": 19613, "farah</w>": 31547, "exc": 1302, "jubilee</w>": 16907, "artichoke</w>": 39647, "treatments</w>": 15839, "g</w>": 326, "claw</w>": 19106, "Ð¿ÑĢÐ¸": 46321, "demand": 13072, "baja": 40418, "optome": 35533, "eti": 11188, "basketball</w>": 3835, "manne": 30160, "maroon</w>": 20501, "worms</w>": 20231, "bands</w>": 7858, "jen</w>": 12997, "spoon</w>": 14024, "dai": 13559, "stole</w>": 10995, "swollen</w>": 36129, "seh</w>": 41430, "bordeaux</w>": 22009, "ranch</w>": 10659, "food": 4586, "orlando</w>": 7827, "):</w>": 4143, "depre": 7107, "venting</w>": 15731, "battles</w>": 14213, "csm</w>": 40061, "flash": 6089, "barre</w>": 38257, "qpr</w>": 24788, "leafs</w>": 16688, "dat</w>": 9445, "thrown</w>": 15079, "nutriti": 17978, "cruz</w>": 8403, "immune</w>": 15606, "pass": 5016, "stc</w>": 29859, "rsi</w>": 39046, "assures</w>": 41988, "hilariously</w>": 43476, "beaver": 26432, "tea</w>": 3274, "earlier</w>": 4297, "apse</w>": 31843, "cork</w>": 10376, "shen": 10154, "dance": 10619, "knowing</w>": 9267, "igers": 40755, "trader</w>": 17700, "parme": 26295, "ters</w>": 1737, "mp": 1037, "norcal</w>": 41970, "marion": 37765, "york</w>": 2705, "vlad</w>": 41089, "pct</w>": 22168, "Ģï¸ı": 9668, "invading</w>": 40101, "ley": 2565, "ashok</w>": 38141, "dola</w>": 38005, "shim</w>": 32780, "firearm</w>": 40311, "gibraltar</w>": 23988, "agreement</w>": 8286, "giggles</w>": 42731, "upgraded</w>": 18577, "alt": 9995, "indo": 26303, "ðŁĳĩðŁı¼</w>": 37504, "shortlisted</w>": 20631, "northwest</w>": 12894, "tickle</w>": 42999, "una</w>": 6385, "huddle</w>": 33435, "instrument": 42196, "vani": 15396, "ro</w>": 2795, "might</w>": 2727, "prevents</w>": 31746, "mps</w>": 5504, "dah": 16976, "danielle": 30396, "depriv": 45809, "atorium</w>": 41306, "doglo": 40733, "l": 75, "hurling</w>": 24738, "melodies</w>": 38412, "photographers</w>": 17141, "zada</w>": 34889, "bend": 22100, "sudden": 10833, "handful</w>": 23725, "´": 112, "carn": 21597, "corp": 29203, "staffing</w>": 32932, "aggreg": 41968, "...\"</w>": 5240, "usa</w>": 2547, "aira</w>": 46444, "victorias": 47791, "leep": 48875, "dak</w>": 16095, "boli": 12722, "anatomy</w>": 15376, "ense</w>": 27658, "dha": 11629, "oute</w>": 44180, "livestock</w>": 22079, "ullivan</w>": 45252, "tholes</w>": 42465, "sheds</w>": 25921, "ðŁįĢ</w>": 15764, "shale</w>": 32864, "ignition</w>": 36115, "sette</w>": 14613, "litigation</w>": 31769, "bangor</w>": 31190, "eera</w>": 36664, "drian</w>": 36870, "vantage</w>": 31749, "nana</w>": 18761, "mst</w>": 26335, "jacket</w>": 6164, "presbyter": 33959, "wai</w>": 21569, "intention</w>": 26786, "braun</w>": 29309, "billy</w>": 6814, "emilia</w>": 34238, "transport</w>": 7362, "itchy</w>": 41980, "ouro": 41224, "gail": 41160, "acura</w>": 30120, "igans</w>": 25419, "aab</w>": 34108, "warhol</w>": 27554, "commit": 3041, "times": 26445, "lins</w>": 6567, "ogue</w>": 24761, "sory</w>": 16257, "braised</w>": 28363, "uan</w>": 33062, "savoy</w>": 39552, "never": 6746, "rons</w>": 19536, "motivating</w>": 37720, "turnout</w>": 11654, "Ø§ÙĨ</w>": 33200, "xfinity</w>": 35107, "andro": 4417, "columbus</w>": 11273, "kil</w>": 39337, "sanctioned</w>": 43032, "piggy</w>": 28245, "any": 1307, "Ð¸Ð": 29503, "bush</w>": 6867, "comman": 39780, "internal</w>": 11285, "ppets</w>": 25849, "buzzer</w>": 38064, "mmmm</w>": 13180, "niss</w>": 39043, "mcgill": 46524, "astor</w>": 47086, "geoffrey</w>": 29520, "sunflower</w>": 21559, "spr": 1536, "thephoto": 18303, "spp</w>": 47567, "labyrinth</w>": 35594, "cease": 32856, "abad": 33444, "guild": 19755, "dominated</w>": 23048, "ðŁİ¾</w>": 24222, "soulful</w>": 30196, "ornam": 36122, "ouses</w>": 33666, "coper": 41891, "quilt</w>": 23977, "fulfill</w>": 27467, "swims</w>": 46798, "stuart</w>": 11723, "facil": 39973, "empowering</w>": 20086, "uefa</w>": 19189, "lookalike</w>": 38307, "twell</w>": 30162, "location</w>": 4372, "basilica</w>": 27879, "church": 14956, "goldsmith</w>": 40214, "immunology</w>": 44483, "aws</w>": 19658, "typography</w>": 24332, "tighten</w>": 46653, "lungs</w>": 27366, "slan</w>": 47193, "lew": 5063, "?!\"</w>": 29315, "ull": 33254, "ohs</w>": 39542, ",&</w>": 26905, "taj</w>": 24805, "weeks</w>": 2898, "aul": 20695, "motorsports</w>": 24264, "master</w>": 3498, "lev</w>": 29950, "stick": 5483, "versity</w>": 1906, "menus</w>": 33534, "advant": 7017, "lolita</w>": 42615, "weav": 22260, "conceded</w>": 37895, "ðŁĳįðŁĳį": 33012, "canadian</w>": 5255, "fog</w>": 9417, "weh</w>": 40313, "forbidden</w>": 25164, "deficit</w>": 20156, "radic": 18082, "propag": 12151, "houston</w>": 5663, "tor": 937, "ws": 6300, "ironman</w>": 20330, "adecides</w>": 46374, "shant": 36610, "º": 118, "pha": 4443, "violence</w>": 5450, "intl": 38186, "joseph</w>": 6478, "tightly</w>": 37568, "frank</w>": 5229, "visit": 3388, "hy": 1441, "sanfrancisco</w>": 20254, "behaviors</w>": 37741, "ãĥ³ãĥ": 25914, "tng</w>": 35898, "igno": 15375, "presbyterian</w>": 35370, "signatures</w>": 21865, "nest": 20302, "relessly</w>": 33927, "sora</w>": 38719, "celebrate</w>": 2694, "downers</w>": 43739, "propaganda</w>": 14718, "tins</w>": 37359, "aseball</w>": 46903, "hysterical</w>": 48627, "diplo</w>": 38115, "healthylifestyle</w>": 46254, "nomore": 35126, "pascal</w>": 28626, "aioli</w>": 43949, "raisethe": 47109, "spells</w>": 25335, "simons</w>": 33097, "brev</w>": 42882, "cedar</w>": 13799, "wrights</w>": 43711, "bilbao</w>": 34802, "bear": 6375, "atleast</w>": 33231, "guerrilla</w>": 36715, "bama</w>": 20021, "ring</w>": 2540, "punisher</w>": 38509, "ouring</w>": 12000, "unsafe</w>": 32071, "longest</w>": 10731, "pat": 1300, "usable</w>": 22890, "rhodes</w>": 17785, "geist</w>": 38290, "atiku</w>": 37912, "condomin": 42589, "romano</w>": 38409, "Ħë": 34462, "clear</w>": 3143, "our": 727, "crowe</w>": 33560, "decorated</w>": 15917, "alastair</w>": 42062, "attend": 9841, "amore": 38937, "#@</w>": 35062, "jenn</w>": 29869, "ault</w>": 10219, "fetch</w>": 30271, "lanka</w>": 16221, "copyright</w>": 15778, "marino</w>": 30878, "fion": 27476, "elli</w>": 6673, "official": 5768, "ðŁĮİ": 31125, "admiral</w>": 21013, "davido</w>": 35989, "lords</w>": 14969, "itans</w>": 40711, "frequencies</w>": 45319, "¶</w>": 370, "grade": 45435, "dita</w>": 47965, "oak</w>": 7221, "ably</w>": 6748, "theological</w>": 41162, "travis</w>": 12287, "oso": 42793, "plated</w>": 21161, "é": 165, "oon</w>": 7100, "torino</w>": 29178, "metropolitan</w>": 19013, "norma</w>": 35757, "genesis</w>": 13518, "aan": 20705, "von": 11269, "jensen</w>": 19004, "stomping</w>": 46144, "navy</w>": 5598, "÷": 179, "nahi</w>": 35244, "cham": 1290, "kris</w>": 12261, "mediterran": 14358, "himalay": 17552, "luckily</w>": 20100, "yes": 21620, "sammy": 31091, "petal</w>": 40469, "quaker</w>": 43395, "onym": 11483, "allstars</w>": 31198, "ðŁĲ¸": 45597, "sma</w>": 11854, "renewable": 31269, "ailing</w>": 29999, "nehru</w>": 30316, "khar": 18340, "abstracts</w>": 40065, "submerged</w>": 43171, "interpretation</w>": 20652, "disruption</w>": 19635, "yee</w>": 23108, "auck": 14588, "missuni": 26347, "versus</w>": 14548, "argentine</w>": 32582, "roth": 17741, "indiedev</w>": 10863, "invade</w>": 34609, "national</w>": 1362, "bailey</w>": 10180, "baddest</w>": 38112, "mcs</w>": 27020, "talbot</w>": 30585, "peel": 34386, "untold</w>": 32206, "hannah": 18622, "inos</w>": 21828, "rollers</w>": 36941, "below</w>": 3788, "liv</w>": 19901, "mala</w>": 28290, "borne</w>": 9328, "photo": 1153, "hare</w>": 18464, "participants</w>": 10237, "mg</w>": 8014, "uttarakhand</w>": 35655, "bandung</w>": 29512, "supervision</w>": 36234, "upcoming</w>": 4196, "spraying</w>": 39224, "cairns</w>": 32941, "liance</w>": 40864, "lith": 37005, "royalty</w>": 18296, "ghue</w>": 45675, "skin": 5821, "majors</w>": 23597, "dreaming</w>": 11662, "sume</w>": 45457, "haley</w>": 16839, "precious</w>": 8226, "reflective</w>": 27008, "blon": 7958, "sustainability</w>": 9635, "seclu": 42392, "administrative</w>": 22424, "lue</w>": 45199, "genetic</w>": 13578, "mend": 8151, "recession</w>": 27176, "thames": 43472, "nie</w>": 3501, "¾</w>": 378, "fashioni": 26062, "src</w>": 23445, "lancer</w>": 38195, "liquor</w>": 17828, "bw</w>": 15120, "unpaid</w>": 32811, "galileo</w>": 39671, "litres</w>": 39919, "contin": 1918, "personally</w>": 13885, "nrf</w>": 47982, "samuel": 30612, "bhubanes": 41213, "technically</w>": 23180, "obi": 21454, "cov": 19384, "lv</w>": 11184, "dios</w>": 37563, "filter</w>": 7541, "crimin": 5874, "ľ": 250, "shun": 24479, "tofu</w>": 24692, "facebook": 36156, "disappro": 48276, "players</w>": 3030, "loire</w>": 46040, "cial</w>": 1143, "dancing": 33280, "uth</w>": 44750, "fireside</w>": 36185, "bette</w>": 35855, "hashi</w>": 41831, "loom</w>": 17199, "bung</w>": 44748, "athe": 8963, "microscopy</w>": 38431, "olson</w>": 28046, "brony</w>": 21084, "izen</w>": 34776, "israel": 20837, "ear</w>": 8373, "britain": 40802, "danced</w>": 32891, "lagun": 18500, "sb</w>": 4977, "assembly</w>": 7059, "surfers</w>": 34842, "application</w>": 7241, "supplement</w>": 19924, "sunset</w>": 3424, "wfp</w>": 35193, "autho": 34552, "agar": 13199, "croatian</w>": 34795, "prayers</w>": 8393, "pore</w>": 28267, "yuan</w>": 26236, "dojo</w>": 35901, "labels</w>": 17413, "ook</w>": 8394, "webb</w>": 15708, "nireland</w>": 45763, "gaia</w>": 41269, "tainted</w>": 47211, "openly</w>": 23005, "charts</w>": 10728, "teenwolf</w>": 40067, "instac": 46678, "deutschland</w>": 36878, "elimination</w>": 24176, "qureshi</w>": 46307, "pel</w>": 7006, "nad</w>": 43928, "continuously</w>": 29634, "affordable</w>": 8926, "earns</w>": 16760, "kip</w>": 15986, "gy</w>": 1164, "miracle</w>": 11543, "ðŁĴ¥ðŁĴ¥": 27396, "complimentary</w>": 20948, "noisy</w>": 33495, "smells</w>": 14668, "html</w>": 18231, "forec": 34155, "neo": 14562, "roadside</w>": 26928, "sny": 17526, "rafael": 38221, "starling</w>": 46205, "dazz": 17149, "arunach": 47260, "caricature</w>": 38857, "lunches</w>": 29705, "alban": 10882, "gering</w>": 24077, "lete</w>": 34078, "therapeutic</w>": 23240, "impacted</w>": 21424, "compelling</w>": 21766, "pixel": 14384, "beware</w>": 14532, "eastwood</w>": 28270, "canadi": 4329, "@.</w>": 43730, "hell</w>": 4141, "recognition</w>": 9415, "leary</w>": 36051, "maxi</w>": 23266, "schwe": 25324, "pees</w>": 31830, "eval</w>": 9703, "hunt</w>": 5774, "respiratory</w>": 24483, "ango</w>": 19090, "retail": 14910, "foot": 6702, "unveiled</w>": 13572, "posting</w>": 7559, "cough": 35631, "underwear</w>": 21154, "johncena</w>": 46820, "seek</w>": 8839, "davos</w>": 31887, "copper": 24741, "justintrudeau</w>": 32184, "gameday</w>": 9241, "anchored</w>": 45926, "lookbook</w>": 39184, "protocols</w>": 39631, "jop": 30486, "jual</w>": 38720, "conquered</w>": 27099, "anything</w>": 3582, "erich</w>": 26070, "confessions</w>": 29404, "crescent</w>": 18211, "joanne": 43736, "impaired</w>": 28028, "guez</w>": 12313, "gically</w>": 26320, "youts</w>": 22737, "ament</w>": 27528, "large": 40234, "criminals</w>": 18783, "routing</w>": 44086, "pressing</w>": 20893, "dram</w>": 32170, "lis</w>": 12749, "political</w>": 4197, "âļªï¸ı</w>": 17885, "xtreme</w>": 33483, "prac": 2243, "sga</w>": 33049, "missionary</w>": 27915, "iftar</w>": 35153, "sini": 41781, "surpass</w>": 45494, "ridic": 9624, "citizenship</w>": 17386, "donut</w>": 18471, "enthusiasts</w>": 27514, "regain</w>": 37510, "roberto</w>": 16227, "entitled</w>": 18680, "ðŁİĬ": 22763, "scu": 8181, "wynonna": 41456, "ðŁĴªðŁı¾</w>": 39398, "annah</w>": 14327, "respect": 31411, "ðŁĻĮðŁĻĮ</w>": 30430, "crawfish</w>": 42772, "romeo</w>": 14429, "soldiers</w>": 7547, "damn</w>": 4451, "orchar": 40226, "fall": 6489, "tk</w>": 20676, "bfi</w>": 34244, "scales</w>": 22891, "tona</w>": 13459, "overcome</w>": 14365, "soun": 19474, "treaty</w>": 19967, "rents</w>": 31109, "stardom</w>": 44616, "daw": 5971, "nate": 26643, "steward</w>": 43355, "discs</w>": 29270, "swaps</w>": 49242, "snz</w>": 37678, "....\"</w>": 26689, "jubi": 15485, "pete</w>": 8571, "coron": 13210, "tuscal": 42638, "armor</w>": 16167, "vocals</w>": 17666, "bray</w>": 22993, "vote</w>": 2187, "lip</w>": 8546, "mped</w>": 28134, "fade</w>": 20486, "ances</w>": 3515, "coup": 9871, "ethical": 47041, "stomach</w>": 14722, "org</w>": 5593, "msu</w>": 17298, "hess</w>": 41888, "onie</w>": 35249, "jn</w>": 21717, "archive": 42257, "laws</w>": 7306, "enary</w>": 13132, "casualties</w>": 30244, "didyou": 12295, "domination</w>": 30919, "calendar</w>": 7122, "efl</w>": 27172, "rocket": 25435, "overcast</w>": 36942, "ghar</w>": 36973, "custody</w>": 16176, "agar</w>": 17544, "front</w>": 2184, "noisse": 45686, "performer</w>": 17061, "hama</w>": 17944, "indoor</w>": 9546, "disappointing</w>": 21941, "âĻ¥âĻ¥": 12975, "lyrical</w>": 33358, "defic": 18022, "grasp</w>": 34975, "gut</w>": 13486, "sense": 29162, "afterno": 22330, "kejriwal</w>": 17334, "conditioned</w>": 37014, "paa</w>": 32812, "icec": 13636, "ville</w>": 1930, "attack</w>": 3815, "bee</w>": 5028, "als</w>": 938, "downer</w>": 42522, "hmv</w>": 49288, "black": 2025, "ankles</w>": 48688, "groo": 9015, "turnt</w>": 28887, "tuesdays</w>": 23195, "vika</w>": 39562, "asure</w>": 3813, "sailed</w>": 43047, "ballis": 46675, "pti": 29375, "ange</w>": 3039, "lincolnshire</w>": 29014, "frock</w>": 45306, "maru": 37413, "L": 43, "vall": 23523, "desp": 3642, "imagining</w>": 27384, "pair</w>": 4038, "zappa</w>": 46592, "meow</w>": 17246, "ior</w>": 2498, "womack</w>": 48980, "queens</w>": 9330, "donegal</w>": 24172, "mcgra": 29367, "halton</w>": 45445, "redux</w>": 43014, "emo": 3738, "datascience</w>": 15748, "cas</w>": 13831, "srk</w>": 11216, "future": 7959, "westlake</w>": 41535, "tutoring</w>": 37532, "oud</w>": 1359, "svu</w>": 32123, "afs</w>": 48960, "ulties</w>": 21884, "anime": 23314, "aires</w>": 17034, "camper</w>": 24522, "concert</w>": 3066, "fex</w>": 26392, "andthe": 22111, "ucc</w>": 29138, "gued</w>": 38893, "ðŁĺ²": 40460, "canelo</w>": 43210, "patti": 44927, "nex": 6897, "contribute</w>": 14112, "syd": 4525, "dhry</w>": 39960, "hop": 10848, "cann</w>": 23709, "guards</w>": 12810, "nished</w>": 24141, "yt": 36777, "ries": 28179, "prakash": 43708, "gerrard</w>": 26538, "watchdog</w>": 35303, "chasing</w>": 13376, "canton": 37735, "ku</w>": 4827, "inland</w>": 21943, "elec</w>": 38768, "blaming</w>": 29287, "nipp": 24634, "iowa</w>": 8290, "ardo": 35735, "sympo": 9730, "bleed</w>": 24791, "hackathon</w>": 25182, "interventions</w>": 28848, "prevented</w>": 35356, "lannister</w>": 49056, "missouri</w>": 11835, "sculpt</w>": 45044, "lx</w>": 30789, "simpson</w>": 11750, "zardari</w>": 20174, "stalert</w>": 25450, "rooney</w>": 17712, "wonderwoman</w>": 31000, "tinker": 45272, "grim</w>": 23635, "cannons</w>": 46269, "tribes</w>": 26546, "fordshire</w>": 14645, "stolen</w>": 8704, "anticip": 11435, "pint": 42537, "sprints</w>": 36404, "influenza</w>": 39897, "doit</w>": 28109, "ential</w>": 5194, "english": 15942, "blocks</w>": 10113, "entertained</w>": 30631, "locker</w>": 14053, "brendon</w>": 36756, "both</w>": 2212, "fittings</w>": 45787, "wt": 15873, "lakedistrict</w>": 26437, "tern": 41572, "toppings</w>": 47554, "uhhh</w>": 45270, "sav</w>": 26533, "supervisors</w>": 37958, "thesun</w>": 45617, "merrychristmas</w>": 19672, "âĢĶ": 6718, "peter</w>": 3696, "meals</w>": 11229, ":((</w>": 42496, "tane</w>": 24923, "protesting</w>": 18788, "oppa</w>": 23637, "witt</w>": 17168, "shaped</w>": 10127, "rivals</w>": 15135, "riverfront</w>": 44439, "arrows</w>": 24768, "known</w>": 3102, "enz</w>": 31873, "',</w>": 5662, "spur": 15206, "âľĬ": 12392, "bnb</w>": 20010, "nyfw</w>": 21089, "auer</w>": 33460, "standoff</w>": 31821, "artifacts</w>": 30249, "itv": 20159, "highways</w>": 28007, "winetasting</w>": 41288, "cancer": 12690, "repeatedly</w>": 26630, "vue</w>": 19313, "stimulate</w>": 42380, "braun": 39129, "surpri": 3244, "whate": 6695, "bata</w>": 39277, "traditional</w>": 5604, "pisces</w>": 45982, "arguably</w>": 30899, "ðŁĩ¿ðŁĩ¦</w>": 36982, "mary</w>": 2676, "joan": 28064, "ðŁ¤ĶðŁ¤Ķ</w>": 28490, "iron": 7699, "kuz": 33253, "wwww": 34224, "sherlock</w>": 17294, "rass</w>": 45654, "implic": 15269, "ente</w>": 9935, "ctr</w>": 18481, "cromwell</w>": 45345, "anath</w>": 31277, "plets</w>": 43230, "twent": 27027, "imit": 23462, "commando</w>": 31361, "morro</w>": 48363, "streamers</w>": 19937, "firms</w>": 13655, "photographed</w>": 11573, "caching</w>": 40655, "parties</w>": 9032, "dailynews</w>": 43466, "sor": 1852, "leveled</w>": 48453, "chero": 19844, "ðŁİ©</w>": 37701, "midterm</w>": 34365, "mortg": 12069, "airdrop</w>": 38434, "ðŁĶ¥ðŁĶ¥": 5692, "amusement</w>": 32570, "separates</w>": 45365, "priyanka</w>": 31959, "dd": 1353, "assumptions</w>": 45948, "pcb</w>": 26235, "fiji</w>": 18285, "polk</w>": 33317, "beast": 20847, "santiago</w>": 16568, "msu": 26763, "finds</w>": 6680, "tottenham</w>": 14889, "kuala</w>": 30336, "ðŁİĦ</w>": 11267, "evacuated</w>": 26806, "pilot": 31619, "zens</w>": 15298, "jain</w>": 21999, "spay": 40634, "house": 4107, "beyon": 11447, "uttarak": 33755, "boer</w>": 40768, "corbyn</w>": 14026, "ftw</w>": 19298, "corporations</w>": 25482, "novo": 27504, "rolled</w>": 11982, "wet</w>": 6682, "snowboarding</w>": 32397, "slug</w>": 34190, "ser</w>": 2771, "dgate</w>": 41684, "uka</w>": 23294, "twt</w>": 6825, "taf": 29660, "afghan</w>": 15919, "teessi": 43295, "examine</w>": 25728, "hock</w>": 46574, "whimsical</w>": 42282, "foo</w>": 23435, "ikon</w>": 19156, "invitations</w>": 40120, "hesit": 23933, "unfollow</w>": 38797, "comrade</w>": 30844, "dams</w>": 37680, "jessica": 45421, "sissy</w>": 27564, "chaw": 39639, "matinee</w>": 38525, "sensei</w>": 36158, "ripp": 25276, "rowley</w>": 48793, "sic": 8278, "prim": 22004, "oasis</w>": 18185, "mulus</w>": 26180, "beach": 6068, "condor</w>": 47643, "tee</w>": 3385, "ponder</w>": 36863, "trumptrain</w>": 43595, "plant</w>": 3912, "macarthur</w>": 36785, "testing</w>": 4967, "theworld</w>": 17475, "president": 19900, "plumb": 21769, "boon</w>": 35821, "proven</w>": 14569, "magn": 10290, "testim": 12553, "deforestation</w>": 41330, "cheer": 9733, "woof</w>": 24028, "bloody": 38568, "âĺİï¸ı</w>": 27219, "zayn": 22292, "aussie</w>": 14424, "councillors</w>": 29695, "digestion</w>": 40533, "steiner</w>": 36314, "hepat": 23767, "sticky</w>": 18887, "snowman</w>": 22668, "whereyou": 46837, "funday</w>": 15439, "soar": 48997, "cnbc": 41242, "ttu</w>": 44006, "counselors</w>": 38688, "roughs</w>": 37598, "mero</w>": 19097, "expelled</w>": 48834, "shel": 3159, "enquire</w>": 46658, "coop": 39917, "aunt</w>": 12685, "ne": 557, "shka</w>": 38944, "extinct</w>": 24488, "packers</w>": 14294, "homme</w>": 26193, "saz</w>": 35577, "glas</w>": 43654, "contenders</w>": 29711, "brightening</w>": 43929, "cody": 23222, "maison</w>": 27626, "reluctant</w>": 45552, "groves</w>": 27306, "farmer</w>": 10474, "anarchi": 39879, "particul": 11408, "patrick</w>": 5286, "chriss": 46745, "omat": 40788, "precau": 36532, "ngo</w>": 24821, "retri": 16918, "umin</w>": 31542, "diverse</w>": 11464, "lakeland</w>": 34306, "para</w>": 8976, "hermosa</w>": 42531, "unya</w>": 37142, "side": 5869, "planters</w>": 43661, "illy</w>": 9532, "matte</w>": 19771, "sargent</w>": 34864, "fatal</w>": 12124, "à¥Ģ</w>": 25751, "inoa</w>": 25649, "oming</w>": 10796, "pera</w>": 26294, "marvel</w>": 5996, "jyoti</w>": 48696, "onion</w>": 10985, "loos</w>": 45723, "dre</w>": 14584, "breakable</w>": 30691, "garth</w>": 24469, "defeats</w>": 16317, "fer": 1765, "aburger</w>": 46660, "comer</w>": 20916, "extinction</w>": 21186, "dal</w>": 5601, "byrd</w>": 30369, "breakaway</w>": 42732, "kow": 29764, "universityof": 46158, "uked": 48987, "mancity</w>": 31538, "offices</w>": 10933, "was</w>": 739, "rutger": 49029, "smy": 14381, "kes": 38398, "harvey</w>": 9586, "airport": 48337, "tala</w>": 29845, "yorkers</w>": 41041, "antal": 39355, "sty": 1421, "accuse</w>": 39414, "oru</w>": 31281, "nobelprize</w>": 46074, "dispro": 32927, "south": 2938, "roses</w>": 9061, "pearljam</w>": 46739, "babygirl</w>": 39554, "specializes</w>": 48533, "inter</w>": 10093, "ffs</w>": 4424, "funko</w>": 23697, "upstream</w>": 45517, "safetyfirst</w>": 43608, "introducing</w>": 6256, "slain</w>": 35972, "paws</w>": 16714, "kamal</w>": 28619, "bla": 2205, "josel": 47800, "uri</w>": 8699, "uganda</w>": 11125, "rossi</w>": 24817, "dakota</w>": 12358, "potter</w>": 9026, "brightly</w>": 36298, "stuttgart</w>": 32219, "ared</w>": 5369, "isi": 7233, "opera</w>": 8056, "adog</w>": 44913, "unemployed</w>": 32721, "motoring</w>": 44491, "uto": 18866, "collagen</w>": 36120, "cfr</w>": 44033, "warns</w>": 14086, "condol": 18661, "coll</w>": 23898, "clementine</w>": 47112, "ose</w>": 22541, "ðŁİ¾": 41982, "chin": 6555, "hk</w>": 12307, "vocali": 19134, "siege</w>": 18460, "univ</w>": 14896, "generic</w>": 26978, "peek": 46323, "remi</w>": 41693, "donghae</w>": 28945, "sz": 13438, "pianos</w>": 47904, "ê¸": 32495, "roni</w>": 47234, "eber": 34020, "sounding</w>": 21351, "chemical</w>": 9208, ">></w>": 2988, "budd": 7296, "idlib</w>": 36199, "constance</w>": 40682, "expo</w>": 6344, "nominating</w>": 45747, "¿": 123, "initiated</w>": 27756, "committees</w>": 40504, "mpi</w>": 43263, "promis": 3963, "ghi</w>": 22279, "york": 5318, "sql": 42759, "ruined</w>": 17231, "morton</w>": 20698, "plumber</w>": 43478, "geospatial</w>": 46238, "strait</w>": 22946, "nao</w>": 39319, "kamloops</w>": 36602, "undp</w>": 26691, "dp": 23820, "resembles</w>": 35417, "wilhelm</w>": 39696, "strongertogether</w>": 38532, "association</w>": 5578, "goat</w>": 9530, "bmc</w>": 27807, "fort</w>": 2921, "relation</w>": 16207, "crumb</w>": 39909, "natic</w>": 44944, "lift</w>": 6779, "hearing</w>": 5541, "centu": 16818, "karab": 40916, "gour": 13580, "abroad</w>": 11253, "sil</w>": 8315, "oversight</w>": 32494, "trout</w>": 14853, "entre</w>": 19600, "sleeping</w>": 6982, "cypri": 36481, "hunting</w>": 7507, "porta</w>": 45037, "³ï¸ı</w>": 24706, "trump</w>": 1797, "page</w>": 2504, "memphis</w>": 11298, "popu": 3785, "silon</w>": 31841, "mington": 49283, "spur</w>": 20361, "hydration</w>": 24174, "fox</w>": 3240, "sustain</w>": 28156, "provin": 12074, "imagination</w>": 13783, "diffe": 1967, "sliding</w>": 21468, "grump": 49015, "puja</w>": 33753, "ove</w>": 15456, "surgeons</w>": 26000, "vlive</w>": 46797, "mu</w>": 6411, "kine": 17607, "fik</w>": 46589, "welcome</w>": 1881, "departs</w>": 38998, "eneed": 45137, "didyouknow</w>": 12506, "vma</w>": 35666, "paintings</w>": 9956, "rebuilding</w>": 30880, "tenants</w>": 26023, "arianag": 23025, "hsfb</w>": 29539, "allie</w>": 25040, "strongh": 38678, "laga</w>": 30161, "poking</w>": 49169, "theme": 38524, "probable</w>": 42444, "errors</w>": 21195, "shahe": 23643, "chasing": 46909, "icia</w>": 11774, "eels</w>": 44416, "frequency</w>": 18825, "ples</w>": 6248, "individuals</w>": 11990, "swear</w>": 7406, "eria</w>": 11634, "stylish</w>": 10378, "charl": 47736, "releases</w>": 7393, "influencers</w>": 29891, "msk": 38501, "std</w>": 30477, "bearable</w>": 38608, "nano</w>": 22006, "continuing</w>": 11009, "swfc</w>": 30227, "nevis</w>": 43670, "graced</w>": 31894, "deeplearning</w>": 24362, "steen</w>": 18625, "ripping</w>": 29126, "jewellers</w>": 46265, "bloomfield</w>": 40342, "yikes</w>": 25094, "pvc</w>": 26959, "stanbul</w>": 11231, "gis</w>": 12773, "maur": 10574, "danao</w>": 38598, "interpret": 49154, "c": 66, "fted</w>": 5612, "ðŁĩ¦ðŁĩ·</w>": 41629, "upgrade</w>": 10365, "screened</w>": 31450, "shiv": 18042, "noon</w>": 2347, "kaido</w>": 40255, "deon": 31466, "running</w>": 2761, "kiri": 34170, "Ä±</w>": 41901, "guardia</w>": 43628, "trx</w>": 31620, "mesut</w>": 49177, "straight</w>": 4241, "passwords</w>": 43095, "âľĮ</w>": 12656, "creek": 26120, "lox</w>": 41725, "kew": 38014, "follow": 1964, "move</w>": 2783, "arte": 13482, "pubs</w>": 21099, "itate</w>": 42457, "br": 711, "cant</w>": 5784, "lanca": 15694, "fur": 2395, "thora</w>": 46866, "gby</w>": 40509, "mtvstars</w>": 19948, "alised</w>": 25099, "advanced</w>": 7465, "expert</w>": 6284, "federation</w>": 15530, "ðŁĮĻ": 42330, "coalition</w>": 12920, "scramble</w>": 32688, "pele</w>": 44105, "lough": 21927, "oranges</w>": 32417, "prover": 18312, "leak": 42900, "toughest</w>": 23773, "ive</w>": 8653, "gba</w>": 18528, "steelers</w>": 14430, "supposedly</w>": 32302, "dep</w>": 24370, "apprenticeship</w>": 26939, "avy</w>": 29973, "pixels</w>": 34099, "tali": 12122, "felt</w>": 5413, "answers</w>": 8692, "molecules</w>": 35643, "cheetah</w>": 27431, "mot</w>": 15452, "figs</w>": 38882, "tok": 16690, "assemble</w>": 26169, "drop</w>": 3387, "coyle</w>": 45348, "capsule</w>": 20627, "nearby</w>": 13314, "flawed</w>": 35136, "outage</w>": 27320, "geometry</w>": 21731, "analyses</w>": 39695, "emper": 12522, "effort</w>": 6255, "ophon": 25120, "bumper</w>": 17881, "anushka": 42080, "ggy</w>": 6476, "cuter</w>": 27151, "hive": 38162, "aking</w>": 1809, "kyrie</w>": 21857, "navis</w>": 36377, "amber": 18292, "Ė</w>": 466, "cider</w>": 13547, "captures</w>": 15305, "buffet</w>": 17829, "abuja</w>": 23371, "dismant": 36557, "creation": 38293, "armagh</w>": 44313, "eddie</w>": 9517, "loveislove</w>": 43603, "shores</w>": 18102, "irrational</w>": 47413, "hatfield</w>": 38448, "dulil": 32565, "homepage</w>": 29828, "lma": 4493, "tucker": 39703, "olivi": 20773, "ðŁĩºðŁĩ¸ðŁĩºðŁĩ¸</w>": 41411, "realis</w>": 38114, "hino</w>": 45343, "pard</w>": 18773, "dstv</w>": 35027, "seattle": 24388, "rider": 31056, "wari</w>": 20977, "spanish": 29966, "ðŁĻıðŁĻı</w>": 26510, "juliette</w>": 44804, "knife</w>": 8960, "ams</w>": 1396, "runaway</w>": 28851, "ðŁĴµ</w>": 38041, "su</w>": 2937, "males</w>": 14426, "buffal": 25836, "mccle": 40139, "alpha</w>": 8624, "jail": 18574, "cashe": 32233, "mastiff</w>": 42311, "adult": 42209, "contains</w>": 12844, "wonderful</w>": 2582, "timesof": 32522, "Ùĩ": 34274, "spraw": 46590, "cookout</w>": 39743, "idi": 9611, "flin</w>": 43816, "imperial": 32425, "small</w>": 2442, "ttp</w>": 30828, "lyn</w>": 5054, "carriers</w>": 26865, "gerry": 29825, "sophi": 6192, "daytime</w>": 22830, "meen": 37940, "puremichigan</w>": 39783, "work": 1636, "ðŁĵ±": 36104, "stern</w>": 2945, "unanimously</w>": 31798, "ghou": 35843, "hoc</w>": 35880, ".~</w>": 42651, "mla</w>": 16723, "xxl</w>": 29777, "concerning</w>": 21772, "rochester</w>": 18057, "unearth": 32716, "ellas</w>": 37053, "sideshow</w>": 46789, "bada</w>": 37475, "ðŁĺĤðŁĺĤðŁĺĤðŁĺĤðŁĺĤðŁĺĤðŁĺĤðŁĺĤ": 28504, "wellness</w>": 9904, "pitch": 8992, "porte</w>": 28654, "âľĮðŁı¼</w>": 30588, "ĤâĸĤâĸ": 30832, "celebs</w>": 19803, "charlottesville</w>": 32027, "ike": 12329, "lifetime</w>": 9107, "exclude</w>": 49235, "ness</w>": 1294, "pur</w>": 6265, "detroit</w>": 7073, "tator</w>": 18791, "anchorage</w>": 31950, "beasts</w>": 21771, "lic": 2508, "osity</w>": 12730, "acquired</w>": 15932, "organizer</w>": 23905, "predicts</w>": 25960, "saree</w>": 30860, "bre": 887, "spice</w>": 10141, "ðŁĲ¸</w>": 40298, "phyto": 42197, "oue</w>": 48838, "ading</w>": 15000, "competiti": 32581, "professors</w>": 27758, "koh": 13379, "vatican</w>": 21030, "opers</w>": 48728, "yeg": 16854, "kosh</w>": 45233, "stru": 1666, "private</w>": 4439, "mandela</w>": 16280, "posthum": 42410, "saber": 46822, "drastically</w>": 35478, "tem": 2404, "elson</w>": 19624, "braids</w>": 34221, "bg": 16674, "hawan</w>": 27765, "#</w>": 258, "wheels</w>": 8025, "wak</w>": 36015, "grain": 44003, "wd</w>": 7494, "arn": 9348, "uaap": 46753, "noise</w>": 9307, "waj</w>": 49367, "volcano</w>": 14581, "isn</w>": 2923, "ophelia</w>": 49118, "announcement</w>": 6932, "omor": 29431, "pensions</w>": 29773, "rofl</w>": 48228, "helsinki</w>": 19626, "onian</w>": 21090, "âĩ": 27228, "ii</w>": 2329, "ican": 17653, "hali</w>": 43030, "inspecting</w>": 40565, "soundcloud</w>": 15190, "gastron": 30699, "struc": 3311, "dcu</w>": 42647, "gdc</w>": 32793, "enu": 23430, "diagnose</w>": 44429, "ist": 9751, "widesp": 20598, "krit": 36265, "lookout</w>": 18330, "ðŁĴ£</w>": 29006, "tree</w>": 2677, "imaginary</w>": 30417, "waiting</w>": 2680, "amend": 12425, "projection</w>": 22384, "intuition</w>": 40897, "pist</w>": 32826, "yaa": 48847, "relationship": 47239, "yach": 9039, "foster": 26778, "ðŁĴª": 5475, "didi</w>": 34396, "employees</w>": 7377, "lufc</w>": 17818, "galatasar": 42413, "consider": 12471, "iche</w>": 21143, "dilu": 45242, "tse": 49144, "âļ¾ï¸ı": 24727, "marsh": 9237, "abv</w>": 34172, "Ø§</w>": 22625, "case</w>": 2068, "thology</w>": 9881, "holliday</w>": 41624, "mcil": 30481, "zak</w>": 20738, "augmente": 48356, "wooden": 48226, "sweats</w>": 39321, "dolphin</w>": 16464, "giftideas</w>": 23487, "endo": 13476, "vaness": 13328, "ki": 848, "huntington</w>": 23521, "offerings</w>": 24535, "gerber</w>": 45058, "monument</w>": 12019, "farmers": 29752, "ðŁĺŃðŁĺŃðŁĺŃ": 44089, "diamon": 8873, "abud": 20180, "rien</w>": 35237, "century</w>": 4275, "angh": 34030, "chapel</w>": 10137, "pherson</w>": 36421, "orities</w>": 7903, "breeze</w>": 13125, "omas</w>": 36023, "kour": 34134, "achievements</w>": 16114, "shek</w>": 33285, "swindon</w>": 29540, "aids</w>": 11759, "scow": 27929, "ramps</w>": 35257, "timm": 22444, "haw": 2788, "ãĤŃ": 47121, "shoreline</w>": 34807, "lapel</w>": 47961, "anirudhofficial</w>": 45917, "scripted</w>": 40513, "wac</w>": 37947, "santo": 29631, "pigeon</w>": 18008, "andretti</w>": 44291, "pelle": 31267, "opio": 17371, "ðŁıĨðŁıĨðŁıĨ</w>": 44484, "seokjin</w>": 45584, "ears</w>": 9861, "ðŁĳĳ</w>": 8717, "brero</w>": 47781, "dina</w>": 36815, "ðŁ¦ģ": 36367, "desi</w>": 26635, "camden": 38735, "amg</w>": 21324, "cms</w>": 22520, "sensual</w>": 40860, "flows</w>": 16715, "jamaican</w>": 25144, "catwoman</w>": 47251, "clair": 31441, "itch": 2387, "supportsmallstreamers</w>": 36097, "çĶ": 20211, "protections</w>": 33772, "interest</w>": 5095, "democrat</w>": 15431, "splin": 38090, "sio</w>": 10807, "rnli</w>": 29748, "through": 6091, "monu": 9748, "chambers</w>": 16501, "blind</w>": 8351, "digital": 4704, "xma": 48805, "chaired</w>": 31664, "cited</w>": 25069, "apa": 36954, "demarcus</w>": 47873, "ðŁİ¨": 31953, "bench</w>": 8771, "observers</w>": 47544, "ortho": 11366, "ansel": 40356, "mao</w>": 25605, "bieber": 48725, "margare": 10232, "dossier</w>": 46042, "soaring</w>": 27968, "surveying</w>": 33085, "span</w>": 14537, "sources</w>": 5124, "unreal": 46980, "assigned</w>": 25767, "eatlocal</w>": 42868, "recruits</w>": 22647, "chucky</w>": 42026, "(ðŁĵ¸:</w>": 44422, "succu": 45253, "sooners</w>": 30449, "bey": 3234, "japanese": 27211, "âĢĶâĢĶâĢĶâĢĶâĢĶâĢĶâĢĶâĢĶ": 34432, "celeb</w>": 19393, "mack": 8590, "boda</w>": 42030, "intern</w>": 14068, "resu": 10095, "palette</w>": 13901, "lightning</w>": 7756, "marriott</w>": 19211, "hannah</w>": 9142, "atrium</w>": 29725, "croy": 21676, "rers</w>": 18869, "vicente</w>": 39411, "thankyou</w>": 9911, "fangirl</w>": 28813, "yvon": 23327, "endment</w>": 45894, "veri": 11638, "pnw</w>": 31521, "shon</w>": 37621, "underlying</w>": 31812, "teau</w>": 24931, "verona</w>": 31819, "kirby</w>": 17065, "mow": 31006, "amore</w>": 22691, "undead</w>": 40105, "oily</w>": 47550, "shuk": 29927, "mnet</w>": 34129, "biker": 36100, "ðŁĴĻðŁĴĻ</w>": 27101, "èªķ": 41293, "soe</w>": 25498, "colon": 8280, "ovski</w>": 26167, "wod</w>": 41522, "shine": 17582, "creative</w>": 4450, "firmly</w>": 29156, "itv</w>": 12805, "viva</w>": 17399, "yl": 2656, "petre": 47179, "pan": 1072, "smile": 27641, "que</w>": 2319, "thailand</w>": 7469, "conversions</w>": 44137, "fatigue</w>": 23747, "do": 639, "sheets</w>": 12744, "bully": 43111, "ìĬ": 12125, "sze": 44507, "elena</w>": 19421, "backgrounds</w>": 28215, "loves</w>": 3925, "celi": 25567, "screen": 5351, "sah</w>": 26342, "insider</w>": 13300, "burgers</w>": 13007, "allthe": 29253, "policy": 30173, "angle</w>": 6946, "bubbly</w>": 31034, "approved</w>": 9412, "stein": 13653, "replic": 21651, "transpl": 16038, "formations</w>": 37715, "bhu": 9172, "meaningless</w>": 48932, "leah</w>": 19308, "kl</w>": 14134, "sbk</w>": 39211, "yankees</w>": 11889, "tiss": 28155, "spandex</w>": 41686, "hybrid</w>": 10156, "softwitter</w>": 11311, "dex</w>": 13790, "reo": 15963, "moy</w>": 34205, "amitshah</w>": 32374, "greene</w>": 16383, "wafc</w>": 49086, "hsv</w>": 47311, "weaving</w>": 27131, "guay</w>": 24247, "career</w>": 3061, "chalk": 31362, "domain</w>": 15492, "swam</w>": 42539, "mainly</w>": 15280, "spursofficial</w>": 45290, "von</w>": 8497, "needless</w>": 39984, "makeyourown": 34090, "crumb": 48327, "pastries</w>": 39409, "meto": 25679, "huss": 13733, "wasn</w>": 5044, "digs</w>": 26877, "º</w>": 374, "baron": 48371, "starfish</w>": 44283, "oro</w>": 14573, "fty</w>": 17494, "applaud</w>": 42152, "wester": 9846, "zodi": 22660, "tole": 15677, "chil": 1333, "settlement</w>": 16494, "dece": 3534, "officers</w>": 6335, "avery</w>": 20313, "culin": 14772, "stal</w>": 5535, "purdue</w>": 22280, "mariner</w>": 39972, "strange</w>": 7288, "daz": 15449, "Z</w>": 313, "heartbeat</w>": 29154, "/-</w>": 19811, "indianfootball</w>": 45979, "incumb": 32246, "ðŁĺį#</w>": 42357, "constra": 28973, "bonnet</w>": 30636, "faken": 22853, "iambic": 43668, "cleanse</w>": 28717, "zza</w>": 14642, "flyers</w>": 14181, "inspirational</w>": 9855, "latimes</w>": 43356, "deline</w>": 18797, "meyer</w>": 13963, "wu</w>": 9837, "boul": 24830, "liberated</w>": 38690, "ì": 168, "howling</w>": 41771, "readers</w>": 10335, "scorpio</w>": 34331, "assie</w>": 31624, "military": 24498, "usaid</w>": 34507, "horseracing</w>": 30693, "allin</w>": 22395, "ðŁĴį</w>": 24898, "rue</w>": 19276, "oosa</w>": 30834, "landscaping</w>": 25642, "cheerleading</w>": 36366, "beet": 12582, "athlon</w>": 14670, "spoilt</w>": 35358, "digest</w>": 20413, "instaf": 33800, "ðŁĶ·</w>": 37740, "haun": 9676, "danielpadilla</w>": 34702, "arrivals</w>": 19583, "unites</w>": 32061, "wondering</w>": 8360, "altman</w>": 48100, "vive": 18980, "machinery</w>": 21858, "tless</w>": 17427, "ori": 1540, "newmusic": 32510, "cityscape</w>": 40808, "coz</w>": 14282, "style": 12356, "ions</w>": 26289, "hle</w>": 32389, "witnessed</w>": 20187, "markers</w>": 23664, "ffc</w>": 19832, "medals</w>": 14710, "survive</w>": 10431, "cramer</w>": 44592, "wein</w>": 37684, "pricing</w>": 14800, "tash": 35272, "homeschool</w>": 40994, "lawsuit</w>": 14346, "oa</w>": 11994, "cnn</w>": 8259, "nickelodeon</w>": 33279, "afri": 13888, "ilinan</w>": 48497, "adrian": 25012, "captainamerica</w>": 46229, "mitting</w>": 27938, "inked</w>": 29356, "bays</w>": 40156, "grier</w>": 22016, "pot</w>": 5168, "vine": 8471, "bul</w>": 10200, "nails</w>": 8469, "deven": 45537, "finishes</w>": 13078, "ref</w>": 9591, "rade": 44494, "dragons</w>": 10203, "reviewer</w>": 36409, "noel": 38406, "edinburgh</w>": 8068, "fragrant</w>": 37030, "hangout</w>": 17572, "josie</w>": 33167, "grooves</w>": 43954, "resonance</w>": 42310, "brady": 42494, "nook</w>": 30088, "cano</w>": 25937, "fatt": 44131, "templates</w>": 30498, "dogre": 40030, "assortment</w>": 43112, "dipper</w>": 49317, "cken": 25566, "hottie</w>": 22804, "khz</w>": 45604, "atkins</w>": 27734, "whales</w>": 17722, "posted</w>": 4752, "serra</w>": 39851, "clg</w>": 47546, "adn</w>": 40339, "poder": 24960, "âģ£": 31089, "heroes": 38010, "edor": 30184, "thewalkingdead</w>": 18087, "kershaw</w>": 40785, "source</w>": 3634, "biopic</w>": 27942, "usability</w>": 46736, "Ð°Ð": 31090, "multiplayer</w>": 27460, "epic</w>": 4991, "designthinking</w>": 32450, "yotes</w>": 46157, "playful</w>": 23871, "ra</w>": 1735, "sda</w>": 25548, "messe</w>": 40391, "kt": 17238, "anna</w>": 2160, "receives</w>": 10027, "kling": 40270, "kath": 7386, "biodegradable</w>": 47740, "rard</w>": 21012, "concerned</w>": 12020, "rib</w>": 18298, "buy</w>": 2131, "ðŁ¤ĺðŁı¼</w>": 31458, "ruk</w>": 46628, "remarkably</w>": 39087, "printable</w>": 29648, "solar</w>": 5199, "gadget</w>": 25525, "rebels</w>": 13623, "versailles</w>": 32129, "scored</w>": 6143, "pour</w>": 8180, "plo</w>": 43523, "geon": 20844, "lunchtime</w>": 14330, "snare</w>": 40651, "taste": 14314, "meado": 16402, "hubs</w>": 29327, "anticipate</w>": 38280, "Ã¸</w>": 45598, "cynthia</w>": 23748, "perpe": 15749, "electionday</w>": 40540, "tico</w>": 17670, "boh": 43238, "vening</w>": 47532, "sellers</w>": 16562, "mena</w>": 23052, "cobble": 47894, "tensions</w>": 24224, "goldcoast</w>": 34634, "scon</w>": 29272, "nacht</w>": 37261, "cec": 29694, "ðŁıģ": 29423, "ema</w>": 11131, "misty</w>": 18799, "collaborations</w>": 36520, "piper": 47052, "rl</w>": 14590, "apes</w>": 9550, "mabel</w>": 47319, "extremists</w>": 41425, "K</w>": 298, "goose</w>": 13822, "oury</w>": 29484, "compla": 7428, "flavo": 28895, "kik</w>": 36176, "avage</w>": 31505, "stalks</w>": 45886, "arri": 2115, "stair": 7240, "atal</w>": 24797, "converted</w>": 20808, "lifein": 48447, "agnes</w>": 26213, "forsy": 29629, "dishes</w>": 11412, "paddy": 33103, "ppin</w>": 8076, "ie</w>": 1718, "fera</w>": 37705, "jae</w>": 15765, "dispen": 19077, "speeding</w>": 27264, "ana": 6588, "thrust</w>": 40202, "noxi": 39304, "cina</w>": 39467, "cfp</w>": 40756, "dutch": 22277, "spec": 1711, "do</w>": 818, "âľ¨": 7181, "prey</w>": 17131, "watercolour</w>": 18377, "monstax</w>": 45631, "mixer</w>": 17200, "soils</w>": 34891, "lopes</w>": 49269, "agu": 3922, "olu</w>": 46302, "ðŁĺĽ": 24550, "arie</w>": 18774, "reality</w>": 5004, "rop</w>": 43401, "macys</w>": 47652, "andfriends</w>": 36871, "mando</w>": 34006, "poign": 29682, "norwood</w>": 37889, "adjac": 32517, "usur": 45582, "prophecy</w>": 32501, "copying</w>": 38925, "mcke": 27424, "quakes</w>": 24572, "kor": 6428, "hayden</w>": 19806, "wanna</w>": 3836, "girl": 3914, "complaint</w>": 20391, "consultancy</w>": 31735, "stre</w>": 19652, "redeem</w>": 37449, "kung": 39656, "distinction</w>": 28183, "invaluable</w>": 33976, "billed</w>": 37558, "fbloggers</w>": 41389, "katrinakaif</w>": 45845, "tting</w>": 1188, "bert": 17340, "dotnet</w>": 43124, "firen": 34752, "plying</w>": 36071, "curly</w>": 20795, "mrs</w>": 4255, "lapd</w>": 32557, "easport": 42251, "ìľ": 20909, "humbled</w>": 19682, "mering</w>": 41060, "clutch</w>": 13953, "morning": 10769, "umc</w>": 39491, "stream</w>": 3322, "shar</w>": 36542, "gingerbread</w>": 23692, "angry</w>": 9054, "outer</w>": 14188, "mutual</w>": 15055, "efcc</w>": 46087, "banger</w>": 24872, ",.</w>": 41277, "finch</w>": 18523, "ization</w>": 10847, "viewers</w>": 14275, "humidi": 47666, "wasteland</w>": 44035, "ight": 14571, "fort": 12300, "dung</w>": 33712, "dur": 4355, "desc": 13866, "plato</w>": 41101, "jos": 20560, "causing</w>": 10779, "entreprene": 4789, "water": 2505, "âĻ¥ï¸ıâĻ¥ï¸ı": 40309, "mamas</w>": 42395, "develop</w>": 7708, "mongers</w>": 27670, "carpets</w>": 34612, "taj": 28937, "lottie</w>": 48517, "failure</w>": 8732, "sault</w>": 40361, "leye</w>": 37061, "richie</w>": 19797, "gateway": 45221, "roast</w>": 11404, "namm</w>": 35524, "ìĦ¸ë¸": 29658, "calcul": 15734, "really</w>": 1414, "chiroprac": 25987, "drill</w>": 11626, "soldier</w>": 9355, "purchasing</w>": 20718, "Ø´": 28770, "klin": 44809, "kabaddi</w>": 41749, "shank</w>": 24685, "cumul": 42961, "kal</w>": 18712, "dented</w>": 21923, "zilla</w>": 17879, "ingual</w>": 22795, "foxtv</w>": 49396, "kac": 21693, "âĢį": 4244, "lgbt": 11743, "beating</w>": 10078, "kojima</w>": 46419, "unga</w>": 19151, "connection</w>": 26840, "interiors</w>": 14836, "buttery</w>": 45535, "spac": 10336, "ben</w>": 3518, "originals</w>": 16953, "articul": 40343, "iii</w>": 6572, "realities</w>": 32443, "fair</w>": 2849, "sav": 2248, "ðŁĵ½</w>": 45361, "rejected</w>": 17505, "casc": 36714, "yed</w>": 3301, "war</w>": 2238, "ðŁĲŁ</w>": 29989, "calgary": 27415, "viaduct</w>": 39113, "printed</w>": 7978, "isf</w>": 44036, "sate</w>": 35749, "elmo</w>": 32150, "neko</w>": 47066, "johnstone</w>": 40766, "concep": 8389, "tilly</w>": 41199, "mtv": 8099, "schooled</w>": 44722, "war": 984, "untitled</w>": 21309, "caz": 48451, "hurst</w>": 11760, "hns</w>": 48412, "happydays</w>": 25106, "life": 2666, "thinks</w>": 6109, "wallstreet</w>": 45341, "cape</w>": 6631, "exhibiting</w>": 23889, "ðŁĳĮðŁı¼": 37655, "nps</w>": 22025, "ãĥ³</w>": 26875, "connec": 29933, "theforce": 40002, "imagine</w>": 4826, "luther</w>": 17208, "gno</w>": 43686, "conclusions</w>": 39507, "rheu": 42953, "f": 69, "pastels</w>": 45699, "otti</w>": 36721, "reconciliation</w>": 26451, "keg</w>": 32785, "davidbowie</w>": 44448, "redesign</w>": 24188, "tvtime</w>": 19947, "explic": 21011, "jalapeÃ±o</w>": 43017, "expand</w>": 13141, "illuminating</w>": 46601, "âĺ®</w>": 45851, "atic</w>": 2647, "ðŁĶ¶</w>": 36222, "fashion": 6976, "lyric": 24366, "interiordesign</w>": 12902, "rudi": 48360, "ê·": 42680, "idris</w>": 41312, "handicap</w>": 27063, "u": 84, "len</w>": 2159, "assy": 29940, "helle": 48600, "dean</w>": 5828, "biza</w>": 47013, "eyre</w>": 44115, "chocol": 3443, "eland": 24930, "riz": 18426, "solved</w>": 13451, "mishra</w>": 33042, "ðŁĶ¥ðŁĶ¥</w>": 11771, "dharma</w>": 30536, "lot</w>": 1954, "individu": 9574, "doors</w>": 4228, "advised</w>": 23196, "hospitals</w>": 13816, "memes</w>": 12828, "vera</w>": 13350, "ðŁĺ±ðŁĺ±ðŁĺ±</w>": 40909, "sem": 8645, "snapback</w>": 31234, "set": 7965, "laurent</w>": 23226, "glau": 39171, "eradicate</w>": 46164, "occu": 7863, "abled</w>": 10655, "billi": 7693, "ng": 10352, "placement</w>": 16724, "cold</w>": 3153, "sham": 6453, "drives</w>": 11441, "beng": 6962, "inventory</w>": 19444, "elot</w>": 43490, "cry</w>": 6290, "chelle</w>": 30141, "fi": 701, "lock</w>": 4381, "Ã©s</w>": 20507, "iu</w>": 15575, "lup</w>": 27413, "ebola</w>": 15864, "while</w>": 1519, "bladder</w>": 33593, "eagle": 20207, "psych": 31041, "gunna</w>": 24002, "remarks</w>": 15001, "ksa</w>": 25439, "kite": 47777, "laredo</w>": 48427, "alm</w>": 28303, "locks</w>": 13212, "sanjay": 31712, "hurdle</w>": 27486, "filmmaker</w>": 17202, "ril</w>": 2388, "crusted</w>": 37314, "pcm</w>": 47436, "stroke": 44621, "herb": 26116, "puzzles</w>": 27986, "âģ¦âģ¦@</w>": 27783, "flagship</w>": 19779, "kx</w>": 46442, "keo": 43062, "mayer</w>": 21196, "mountain": 14547, "aak": 37739, "valley</w>": 3136, "foreclo": 44916, "fuzz</w>": 40443, "potenti": 44104, "strates</w>": 45724, "mariachi</w>": 44299, "bie": 5561, "scumb": 44525, "tified</w>": 40854, "autopsy</w>": 44436, "fatally</w>": 34069, "silenced</w>": 45415, "phone</w>": 1951, "mbs</w>": 10370, "fails</w>": 13388, "anor</w>": 16596, "esper": 29216, "still</w>": 1170, "spartans</w>": 20457, "stant": 41576, "balance": 42894, "desi": 6772, "killarney</w>": 48813, "pesky</w>": 42512, "mok": 49146, "ke</w>": 618, "counter</w>": 7352, "smol</w>": 40403, "decorative</w>": 19289, "regulat": 14575, "reunite</w>": 26179, "bringback": 28969, "ðŁĳĬ</w>": 9704, "lestweforget</w>": 30273, "kili": 24386, "penguin": 28249, "kete": 25404, "gulls</w>": 37501, "jh</w>": 21485, "rosie</w>": 16888, "reng</w>": 36795, "psis</w>": 33041, "ole</w>": 1947, "bloggers</w>": 11627, "thun": 32267, "representing</w>": 7561, "surrendered</w>": 44601, "csu": 35948, "effect</w>": 5436, "ead</w>": 45523, "propulsion</w>": 49380, "captain": 14958, "drome</w>": 9157, "stin</w>": 4025, "mono</w>": 22537, "communicate</w>": 19809, "assi": 2907, "urope</w>": 14918, "mups</w>": 42195, "craziest</w>": 32690, "crown": 22190, "chri": 1135, "thermo": 22303, "xboxone</w>": 27410, "grandstand</w>": 43172, "adic</w>": 36780, "hops</w>": 21137, "expanded</w>": 18390, "delays</w>": 11232, "smoked</w>": 11161, "socialmedia</w>": 9600, "angas</w>": 46180, "rumble</w>": 18900, "mummy</w>": 16301, "kata</w>": 14558, "jeter</w>": 38450, "politan</w>": 15337, "trillion</w>": 20160, "acious</w>": 16020, "amped</w>": 22640, "quis": 15064, "sergeant</w>": 22049, "wide": 19341, "doubts</w>": 30894, "-_-</w>": 27227, "lub</w>": 11836, "itfc</w>": 36519, "jian</w>": 33427, "vix</w>": 34811, "artificial": 19357, "sunny</w>": 5438, "townhouse</w>": 40178, "ten": 1149, "ci": 698, "morocco</w>": 15228, "swat</w>": 26482, "license</w>": 10337, "wcc": 47166, "justine</w>": 34418, "cartunesapp</w>": 32888, "barley</w>": 22607, "ough": 4204, "winemaker</w>": 41588, "circum": 13406, "ciones</w>": 37155, "caps</w>": 23185, "bihar</w>": 22849, "for": 645, "substances</w>": 36834, "others</w>": 3326, "oldies</w>": 36278, "wral</w>": 49050, "rubs</w>": 43422, "spolice</w>": 37406, "à¸Ļ</w>": 17639, "conway</w>": 21410, "affl": 34036, "bler</w>": 11979, "yusuf</w>": 33222, "pll": 47629, "waiver</w>": 42866, "dayo</w>": 46605, "apartheid</w>": 26597, "dier": 29702, "disappointment</w>": 23884, "jimmyfallon</w>": 45265, "ï¸ı#</w>": 46997, "aver</w>": 11403, "voip</w>": 42762, "prost</w>": 47923, "illon</w>": 20516, "ðŁĺĬðŁĺĬ</w>": 20842, "flavoured</w>": 42397, "ka</w>": 1525, "ah</w>": 1288, "opening</w>": 2516, "manish": 41759, "kineni</w>": 49080, "flipped</w>": 28144, "psi": 45848, "ador": 4992, "pants</w>": 5003, "asm</w>": 13851, "tir": 25467, "rushes</w>": 47217, "count": 6073, "hipp": 13607, "fic": 1788, "mcfc</w>": 16416, "ìļ°": 38415, "atta": 7282, "duh</w>": 26716, "eigh": 13468, "guitar</w>": 5084, "arium</w>": 11809, "hallway</w>": 26845, "ran": 1433, "jou": 19921, "ade": 2194, "inge</w>": 7071, "bari</w>": 28016, "strangely</w>": 37566, "storytime</w>": 44197, "gap": 29906, "hostage</w>": 26119, "murdoch</w>": 29037, "motorola</w>": 33738, "server": 36458, "michelangelo</w>": 41245, "transformative</w>": 38106, "fragrance</w>": 17874, "vampire</w>": 13220, "scent</w>": 7683, "akh": 14821, "flown</w>": 25659, "sett": 4984, "bang</w>": 6907, "exploited</w>": 48554, "housemusic</w>": 28468, "birmingham</w>": 7720, "swol": 29575, "ousy</w>": 28302, "berkeley</w>": 16667, "veni</w>": 31142, "ecofriendly</w>": 43412, "shootout</w>": 20666, "recommend": 11628, "nagoya</w>": 43303, "ound</w>": 853, "starz</w>": 25928, "fray</w>": 41154, "unbelievable</w>": 13306, "stadiums</w>": 38852, "percy</w>": 23940, "per": 703, "domaine</w>": 48744, "liza</w>": 28787, "todo": 48857, "rules</w>": 5272, "inheritance</w>": 39341, "fatalities</w>": 44168, "equi": 8752, "inas": 36731, "jeho": 42437, "yet</w>": 2296, "commuters</w>": 30823, "blocker</w>": 44767, "hampton": 36582, "aday": 31367, "rower</w>": 43345, "ington": 11846, "gz": 45937, "kenne": 6209, "memor": 1858, "environments</w>": 19577, "ðŁĺĤðŁĺĤðŁĺĤ": 22233, "gun": 2748, "valuable</w>": 10056, "appears</w>": 8743, "treadmill</w>": 37780, "symptom</w>": 47799, "moud</w>": 37698, "thrower</w>": 40199, "inflicted</w>": 48188, "gop</w>": 6250, "seen": 36273, "extre": 3978, "critici": 20333, "neck</w>": 6906, "livelihood</w>": 46497, "hin</w>": 37930, "darth": 41304, "sculptor</w>": 29409, "cup</w>": 1937, "invest": 4180, "graham": 19805, "lyme</w>": 31167, "shand": 29101, "tense</w>": 23518, "ðŁĳģ": 47796, "hairy</w>": 26513, "painters</w>": 35703, "informed</w>": 13876, "jens</w>": 40806, "dci</w>": 35336, "exquisite</w>": 17958, "omaha</w>": 16509, "ignorance</w>": 22735, "compressor</w>": 39607, "sonny": 43000, "explores</w>": 13996, "carri": 4739, "fasten": 44990, "cyclo": 18122, "mag</w>": 4508, "sr": 3437, "sai</w>": 10886, "struggle</w>": 8443, "cutiesaturday</w>": 41883, "layla</w>": 45050, "diver": 13119, "zoe</w>": 16662, "guin</w>": 47863, "whir": 20873, "-@</w>": 10087, "salv": 8299, "appoints</w>": 25132, "mendo": 19327, "kri": 3679, "hall</w>": 2140, "maisie</w>": 47355, "refugees</w>": 8316, "brown": 6315, "mantle</w>": 22159, "unseen</w>": 19069, "taz": 41475, "aroma</w>": 26390, "paints</w>": 21672, "gavin</w>": 16389, "tit</w>": 13202, "japs</w>": 42121, "differentiate</w>": 49032, "put": 29535, "maxim</w>": 38574, "saline</w>": 46918, "conwy</w>": 48971, "rehearsing</w>": 23125, "tbh</w>": 13238, "olympia</w>": 23965, "tinged</w>": 44829, "panty": 44217, "bud": 2942, "kickstarter</w>": 13228, "sewn</w>": 42118, "cam": 1004, "ay": 658, "shave</w>": 17735, "yoo</w>": 20775, "naps</w>": 31317, "ritchie</w>": 30997, "ðŁĳıðŁı¼ðŁĳıðŁı¼</w>": 46712, "abb": 38954, "multiple</w>": 6470, "lmaoooo</w>": 45232, "inwx</w>": 35674, "sea": 5970, "memory": 44766, "dark": 5724, "unrelated</w>": 38644, "revived</w>": 42912, "outcomes</w>": 14016, "arianagrande</w>": 23321, "canon": 17749, "summer</w>": 1673, "}</w>": 348, "nang": 48148, "minus</w>": 15358, "enzo</w>": 31543, "pope": 16994, "mohsin</w>": 48861, "devos</w>": 40646, "truffles</w>": 37057, "barkley</w>": 30266, "indiefilm</w>": 22588, "Û</w>": 407, "stuart": 32054, "tropics</w>": 36940, "stealth</w>": 25327, "abridged</w>": 45333, "à¸±</w>": 14978, "ygk</w>": 44758, "dts</w>": 46233, "moh": 18979, "upd": 3226, "torrential</w>": 41158, "\"@_</w>": 20236, "labra": 37067, "sho</w>": 13756, "iliary</w>": 32585, "chand</w>": 41508, "misogyny</w>": 48415, "protected</w>": 12266, "âļ«ï¸ı": 26529, "playable</w>": 33885, "cassette</w>": 19717, "ont</w>": 11157, "umpire</w>": 36214, "debuting</w>": 34817, "apricot</w>": 30815, "ezekiel</w>": 41428, "mcu</w>": 30403, "denomin": 41016, "zebra</w>": 22548, "td": 20578, "protested</w>": 48089, "goodman</w>": 24146, "y</w>": 344, "extreme</w>": 8331, "sop": 3974, "lawson</w>": 22152, "swood</w>": 24158, "venezuelan</w>": 34699, "girlfriends</w>": 30736, "dexter</w>": 22781, "schi</w>": 24984, "spired</w>": 40650, "davidson</w>": 13166, "donor</w>": 18013, "famously</w>": 44505, "level": 21682, "twol": 31964, "ysis</w>": 4843, "promote</w>": 8003, "dru": 2275, "femini": 11894, "alogue</w>": 9101, "isc</w>": 39316, "realizing</w>": 23284, "kinney</w>": 37233, "hafi": 39914, "wand</w>": 28559, "enge</w>": 2742, "fon": 5017, "nfldraft</w>": 25002, "cisco": 36689, "bhak": 34501, "apache</w>": 23921, "npr": 39941, "spheric</w>": 21744, "ilan</w>": 28076, "recy": 6790, "gusts</w>": 20896, "caliber</w>": 32820, "bodega</w>": 47350, "bobcats</w>": 27568, "dong</w>": 31478, "concern</w>": 12928, "eral</w>": 6222, "dious</w>": 27417, "contag": 29259, "boretum</w>": 38902, "neys</w>": 12616, "opi</w>": 48994, "kevin</w>": 4685, "loth</w>": 43625, "hep</w>": 48791, "latest": 46805, "record": 21328, "milano</w>": 18585, "chatting</w>": 12401, "thevoice": 47206, "co": 622, "easily</w>": 8197, "reminder</w>": 5565, "mumbai</w>": 6971, "incen": 13259, "abar</w>": 39805, "lit": 2213, "think</w>": 1331, "fedex</w>": 32603, "ðŁ¤£ðŁ¤£ðŁ¤£</w>": 32262, "[...": 39975, "hind": 34460, "profe": 2611, "medalist</w>": 21040, "are</w>": 631, "funko": 49402, "toni": 17766, "tags</w>": 11606, "alco</w>": 45446, "stap": 10438, "pear</w>": 18820, "dt": 13104, "stephens</w>": 22256, "steff": 30075, "select</w>": 8690, "tundra</w>": 39899, "criterion</w>": 43841, "scicomm</w>": 29573, "fragments</w>": 41424, "tall</w>": 7771, "sous</w>": 32093, "ganga</w>": 36275, "isra": 3591, "separati": 39377, "messiah</w>": 28737, "pancreatic</w>": 49337, "mach</w>": 35091, "pia</w>": 8918, "portions</w>": 22914, "campers</w>": 26619, "present": 2344, "upscale</w>": 47501, "thistory</w>": 28904, "expon": 27905, "elevation</w>": 23826, "consider</w>": 6734, "barton": 48853, "trad": 48716, "disrup": 14641, "execute</w>": 36405, "april": 23548, "united</w>": 2690, "prize": 48222, "break</w>": 2568, "affordability</w>": 44828, "fd</w>": 11525, "breakfast": 30210, "sword": 33294, "temper": 5981, "hopeful</w>": 21453, "rir</w>": 36792, "submission</w>": 16571, "stretches</w>": 32231, "simply": 25637, "hyuk</w>": 20452, "wick</w>": 6479, "ðŁĮ¿</w>": 18588, "ui": 17326, "stuffs</w>": 43455, "munici": 12159, "biodiversity</w>": 17428, "shops</w>": 6467, "reiki</w>": 46960, "dailysketch</w>": 46738, "bennett</w>": 12186, "chapp": 20634, "raining</w>": 13964, "oment</w>": 43683, "competitions</w>": 23259, "cardboard</w>": 19845, "wrc</w>": 16004, "dales</w>": 29031, "wesome</w>": 33292, "primetime</w>": 29763, "las": 8295, "ðŁĺ¯</w>": 37858, "commish</w>": 45399, "ðŁĶ«": 38116, "regrann</w>": 48802, "tawards</w>": 14351, "seac": 35626, "technews</w>": 31787, "heights</w>": 8418, "fuss</w>": 26331, "à</w>": 412, "colored</w>": 11775, "lithu": 21045, "lifel": 15025, "fakespeare</w>": 49095, "sacrifices</w>": 28858, "cfb</w>": 32931, "michael": 6051, "se": 567, "poy</w>": 34737, "ssible</w>": 47099, "disturb": 33018, "golds": 30526, "astros</w>": 17598, "lizz": 34430, "fit": 2366, "ðŁĴĹðŁĴĹ</w>": 24064, "staging</w>": 27026, "jobs</w>": 3735, "bway</w>": 26652, "Ã¤n": 42787, "startrek</w>": 15349, "dipping</w>": 33544, "finals</w>": 4536, "pren": 20801, "ðŁĩºðŁĩ¸</w>": 5688, "hardwood</w>": 28167, "giant</w>": 4687, "ford</w>": 1623, "bowser</w>": 38234, "paki": 3438, "clegg</w>": 42915, "anushkasharma</w>": 44203, "garrett</w>": 15881, "traditional": 41113, "organs</w>": 29872, "expected</w>": 5573, "eyed</w>": 15512, "milestones</w>": 34025, "welling</w>": 49165, "nhlbruins</w>": 39081, "p</w>": 335, "tay": 6542, "ðŁĴ¥ðŁĴ¥</w>": 39246, "persistence</w>": 34588, "spending</w>": 5961, "ecc</w>": 33128, "doz</w>": 31106, "guri</w>": 43888, "itors</w>": 22005, "enko</w>": 25312, "floyd</w>": 13656, "doh</w>": 23581, "aad</w>": 35894, "lighten</w>": 32717, "eastbound</w>": 28827, "rumors</w>": 16160, "ðŁĮ¹": 14990, "pit</w>": 7476, "drs</w>": 21257, "illi</w>": 25187, "circu": 5143, "ronan</w>": 34971, "stamatic</w>": 30904, "sang": 13235, "tfc</w>": 30186, "halle</w>": 32239, "bombs</w>": 14410, "ondon": 42043, "britney</w>": 21853, "brisbane": 42932, "journalism</w>": 10123, "useful</w>": 9784, "seeds</w>": 9128, "aline</w>": 21799, "ayy</w>": 32514, "ssing</w>": 2112, "bacon": 48666, "crowley</w>": 32287, "markle</w>": 32672, "vickers</w>": 48452, "kodak</w>": 30425, "pa</w>": 2217, "oneteam</w>": 41094, "skc</w>": 44551, "rotherham</w>": 37687, "birthplace</w>": 31429, "barack</w>": 22481, "idaho</w>": 15165, "hr</w>": 4086, "ceramic</w>": 15112, "socal": 46470, "yun": 14976, "cultivate</w>": 42983, "vix": 28976, "aroma": 40143, "earthday</w>": 19481, "concert": 32180, "ha</w>": 1429, "erupted</w>": 48862, "css</w>": 19846, "pros": 33925, "¼</w>": 376, "dates</w>": 7228, "noise": 41018, "ing</w>": 519, "riya</w>": 36908, "choke</w>": 30231, "shirehour</w>": 32456, "nts</w>": 43775, "room</w>": 1530, "tsi": 40048, "mahe": 15756, "launch</w>": 2904, "og</w>": 8555, "camp": 2854, "morrha": 43044, "hei": 6101, "kimber": 16796, "accent</w>": 18931, "gh</w>": 790, "lakers</w>": 13570, "brackets</w>": 36183, "à®¤</w>": 34691, "gus</w>": 8018, "complement</w>": 36624, "sixth</w>": 12909, "anno": 9901, "pikachu</w>": 28107, "zzo</w>": 14036, "sickness</w>": 28898, "goldfish</w>": 40293, "brai": 25048, "away</w>": 1520, "undecided</w>": 49368, "agos</w>": 32657, "essex": 30563, "mississauga</w>": 28393, "+.</w>": 25238, "whose</w>": 6933, "evo</w>": 13169, "hannibal</w>": 25149, "host": 17403, "maced": 21102, "malay</w>": 42430, "minerals</w>": 21169, "mund</w>": 14244, "wadi</w>": 37253, "baker</w>": 7743, "rington</w>": 12455, "ene": 3297, "amor": 19977, "competes</w>": 39826, "scarves</w>": 29249, "fone</w>": 40672, "troopers</w>": 23576, "leone</w>": 22864, "atari</w>": 21549, "louis": 8916, "rulers</w>": 45328, "ciao</w>": 37677, "algae</w>": 25654, "oprah</w>": 22562, "outdated</w>": 38313, "realtor</w>": 18038, "gallipoli</w>": 47249, "carly</w>": 22689, "curvy</w>": 45788, "stated</w>": 19629, "âĺĿï¸ı</w>": 38891, "leo": 24008, "yoko</w>": 32256, "ðŁĴĻðŁĴĽ": 46804, "basics</w>": 15825, "mpd</w>": 33814, "ceilings</w>": 33770, "sleet</w>": 36948, "wynne</w>": 35951, "gabriel</w>": 13244, "midnight": 35746, "vom": 24198, "exeter": 32137, "cybercrime</w>": 41772, "naomi</w>": 20173, "sch": 844, "??": 5195, "muscat</w>": 33322, "secur": 2557, "debates</w>": 19239, "kendra</w>": 36074, "salute": 44908, "cing</w>": 4014, "saison</w>": 33256, "lil": 6012, "kindness": 45112, "embroi": 18667, "opportunities</w>": 5978, "defiance</w>": 36186, "middle</w>": 3694, "bongo</w>": 47519, "ãĥ": 2429, "laos</w>": 34353, "ruthless</w>": 36063, "remained</w>": 23714, "dji</w>": 28379, "melrose</w>": 36296, "disrupted</w>": 46674, "lining</w>": 11589, "voyager</w>": 29669, "poly</w>": 18367, "ambani</w>": 45967, "orum</w>": 42724, "timer</w>": 19725, "process": 17291, "stalker</w>": 26777, "pul": 2469, "morpho": 38622, "stair</w>": 17662, "monthsary</w>": 42420, "ðŁĴĺ</w>": 10816, "agree</w>": 5953, "ral": 8062, "client</w>": 7467, "webdev</w>": 37000, "vex": 36187, "tube": 38229, "umbrel": 34773, "heads</w>": 5174, "harris": 25356, "wrestlemania</w>": 18849, "historical": 34154, "pione": 7975, "asaki</w>": 22455, "blunt</w>": 19305, "lidge</w>": 45558, "oce": 3509, "ahar</w>": 38760, "guggen": 35086, "cee</w>": 15015, "demon</w>": 12085, "tto": 8759, "smartwatch</w>": 35798, "brush": 27969, "nears</w>": 37710, "immediately</w>": 10108, "trip": 23421, "olor</w>": 29245, "cheer</w>": 6918, "ase</w>": 894, "íĬ¸": 48974, "mming": 21038, "pantry</w>": 25608, "lovely</w>": 2165, "uri": 11052, "panda</w>": 12952, "fatty</w>": 22953, "contemporaryart</w>": 20212, "cott": 8211, "isse</w>": 18986, "pure</w>": 5979, "chev": 7152, "from": 8330, "rew</w>": 37564, "processing</w>": 11737, "rockn": 24442, "lka</w>": 21881, "os": 2211, "bangla</w>": 45928, "nielsen</w>": 28372, "rahulg": 27510, "guru": 18629, "local": 9202, "platz</w>": 40878, "founded</w>": 12240, "avoided</w>": 32103, "ĝ": 217, "shady</w>": 22158, "hoor": 22155, "novi": 47957, "mech</w>": 38305, "sick": 11143, "kof": 17528, "hundred</w>": 11898, "cycli": 12201, "hai</w>": 5234, "flakes</w>": 20934, "dallascowboys</w>": 33016, "faster</w>": 8835, "jur": 15896, "arton</w>": 46744, "hud</w>": 28563, "wahlberg</w>": 35151, "bius</w>": 45525, "sign</w>": 2292, "eagerly</w>": 30094, "lipp": 38074, "cuff</w>": 22414, "wolff</w>": 34369, "aml</w>": 43185, "mezz": 38771, "unpopular</w>": 40232, "equili": 43262, "cet</w>": 14960, "gata</w>": 44575, "lizasoberano</w>": 45076, "aji": 26102, "eviden": 46220, "respir": 20771, "mdt</w>": 40822, "valentino</w>": 29624, "significantly</w>": 16187, "cb": 4034, "rup": 7996, "vehicle</w>": 5299, "bar</w>": 2411, "ftheday</w>": 9823, "highlights</w>": 6173, "practise</w>": 38938, "olla</w>": 31908, "decorate</w>": 23651, "signup</w>": 40791, "joanna</w>": 25357, "northern": 17210, "tolerate</w>": 35556, "attempted</w>": 17408, "seh": 27536, "union</w>": 3503, "unlocked</w>": 16770, "influen": 13229, "tampa</w>": 10906, "lonelyplanet</w>": 44984, ":-(</w>": 25137, "pints</w>": 27935, "sue": 14045, "ðŁįĭ</w>": 39543, "tou": 1879, "lisam": 43072, "tompkins</w>": 49068, "mmy": 28837, "ear": 1055, "amat</w>": 25455, "siem": 18434, "ssc": 21692, "healy</w>": 34299, "lanapar": 47437, "ppie</w>": 33795, "quare</w>": 42549, "soul": 8701, "ĝ</w>": 473, "ridd": 21990, "irresi": 31200, "imam</w>": 19024, "persons</w>": 14592, "filed</w>": 13864, "escorts</w>": 48574, "soo": 5517, "tair": 29143, "gav": 8966, "thouse": 40318, "compan": 1995, "burglary</w>": 32573, "irwin</w>": 23750, "bile</w>": 25943, "notmy": 39301, "racists</w>": 41777, "kennedy</w>": 9004, "grumpy</w>": 23610, "gm": 18743, "mbps</w>": 44896, "jonah</w>": 27556, "rosen": 13214, "fran</w>": 18878, "bent": 9809, "cheek": 40000, "emi": 44327, "charles": 27983, "prod</w>": 11991, "ðŁĴİ": 25938, "df</w>": 10468, "exchanging</w>": 47760, "attackers</w>": 47701, "boe</w>": 21773, "nishi": 32386, "sthel": 42863, "pivot</w>": 31805, "inquis": 31171, "zzy</w>": 8353, "schumacher</w>": 39208, "swelling</w>": 46578, "swift": 34843, "reminiscing</w>": 32552, "dley</w>": 12808, "asone</w>": 31249, "pebble</w>": 28056, "conditioning</w>": 18181, "aps</w>": 8868, "includes</w>": 6197, "defen": 3619, "classmates</w>": 30062, "cypress</w>": 25347, "claire</w>": 10460, "prosecutor</w>": 23736, "@": 31, "totally</w>": 5440, "clearwater</w>": 32124, "remodel": 34159, "ìĬ¤": 20305, "epiphany</w>": 43251, "squared</w>": 32967, "mcne": 42545, "entertain</w>": 23510, "fulham</w>": 25574, "å": 161, "barclays</w>": 29538, "cybersecurity</w>": 10581, "zyn": 45287, "solve</w>": 8917, "sow</w>": 33089, "yel": 3323, "continental</w>": 14089, "mendes</w>": 18060, "chem": 5667, "receive</w>": 4800, "caffe": 18258, "travelers</w>": 20644, "ersfc</w>": 37925, "sometimes</w>": 4237, "portray</w>": 46282, "salzburg</w>": 43396, "fanny</w>": 30401, "bravely</w>": 42303, "anne</w>": 4083, "dubrovnik</w>": 48724, "settles</w>": 41498, "avoc": 12291, "discipline</w>": 18903, "sainsburys</w>": 36934, "favor</w>": 12160, "ttm</w>": 46838, "careers</w>": 10090, "triplets</w>": 48601, "orch": 11893, "Ã¤": 10896, "emergen": 24096, "registration</w>": 7302, "turks</w>": 34344, "wembley</w>": 16579, "shakur</w>": 48915, "geddon</w>": 31720, "ingley</w>": 44428, "behind</w>": 2403, "axel</w>": 32131, "crew": 21560, "fluff</w>": 31174, "veness</w>": 10516, "ds</w>": 646, "Ħ": 226, "goff</w>": 34399, "ðŁĺī</w>": 4955, "reen": 21638, "une</w>": 10966, "bry</w>": 28228, "side</w>": 1145, "amade": 37366, "vocalist</w>": 22102, "nerd</w>": 12273, "activist</w>": 10850, "tog</w>": 45715, "spills</w>": 35796, "ul</w>": 6625, "samanth": 11465, "weibo</w>": 20613, "miser": 33394, "kings": 18590, "vh</w>": 23847, "carry</w>": 6998, "belated</w>": 20256, "formity</w>": 42290, "ramp</w>": 14271, "pap": 1884, "astrology</w>": 28526, "liver": 4755, "pereira</w>": 43927, "wolfgang</w>": 34061, "sten": 7652, "arthur</w>": 8550, "laus</w>": 28111, "tcm": 21501, "rigs</w>": 42893, "aln": 47203, "regular": 14882, "cunningham</w>": 25321, "fursuit": 25306, "vikas</w>": 37116, "omnic": 48383, "muck": 44731, "gale": 37658, "liss</w>": 35433, "microbi": 19496, "prevail</w>": 31637, "maran": 44732, "activ": 3430, "kpk</w>": 42094, "elu": 14208, "healing</w>": 9295, "devices</w>": 9067, "wei": 6958, ":âĢ¦</w>": 22365, "bitt</w>": 39251, "hyd</w>": 42382, "cancun</w>": 34721, "scafe</w>": 45574, "beij": 11547, "âĺķï¸ı": 25839, "seem</w>": 7523, "ĩ": 229, "standing": 39934, "killer": 28230, "bowman</w>": 22052, "diffic": 6140, "ohhh</w>": 27697, "blueberries</w>": 29551, "bedford</w>": 20779, "conley</w>": 44536, "hokkaido</w>": 49145, "ooooo</w>": 12532, "eu</w>": 3238, "negli": 32594, "ars": 42815, "muscles</w>": 16786, "vuelta</w>": 43856, "greet</w>": 11997, "causeway</w>": 35034, "chopper</w>": 24011, "docs</w>": 15157, "ntv": 24807, "bedroom</w>": 8411, "blun": 34472, "thn": 44155, "7": 22, "!-</w>": 43499, "unis": 30482, "ageing</w>": 25349, "intermission</w>": 44805, "sible</w>": 14507, "scouts</w>": 14837, "excited</w>": 1889, "spruce</w>": 23812, "across</w>": 2500, "damages</w>": 28842, "toma": 42360, "wat": 800, "struggles</w>": 17446, "glacial</w>": 40782, "swell</w>": 21490, "irrigation</w>": 23761, "elled</w>": 13146, "melts</w>": 31446, "coffee</w>": 2453, "ggle</w>": 11430, "adies</w>": 45834, "pjnet</w>": 22011, "ku": 1836, "crystals</w>": 18350, "quito</w>": 35828, "keith</w>": 8252, "du": 691, "thbewithyou</w>": 41067, "mccoy</w>": 20218, "zodiac</w>": 27753, "heritag": 38273, "occupational</w>": 30644, "selfie</w>": 3666, "portraits</w>": 14203, "brilliant</w>": 4106, "zin</w>": 21278, "cot": 4718, "righ": 15391, "nb</w>": 6813, "azhar</w>": 47019, "demo": 2930, "mlpfim</w>": 45640, "aka": 19154, "ined</w>": 2038, "bto</w>": 35516, "speech</w>": 4902, "trance</w>": 18671, "todayshow</w>": 29739, "believeinfilm</w>": 37375, "costing</w>": 39193, "ffers</w>": 32163, "worthless</w>": 44736, "affecting</w>": 18448, "ellington</w>": 34477, "con</w>": 2457, "markings</w>": 41046, "spade</w>": 32562, "aug": 15397, "timber": 14441, "teapot</w>": 40749, "attended</w>": 8140, "university</w>": 2182, "coral": 31220, "jit</w>": 20308, "finesse</w>": 46047, "lower</w>": 4909, "brow": 6547, "â¬ħï¸ı</w>": 42111, "terrence</w>": 38746, "wiggle</w>": 47812, "mounting</w>": 29910, "paraguay</w>": 43579, "to": 580, "pac": 2332, "gil</w>": 10088, "explanation</w>": 16577, "magni": 24297, "iel</w>": 22729, "melania</w>": 32796, "ðŁĴĢ</w>": 12158, "commu": 9561, "âĿĦï¸ıâĿĦï¸ı": 41626, "hendricks</w>": 37588, "adirond": 36843, "tapping</w>": 27882, "phd</w>": 8472, "mission</w>": 2406, "ď": 203, "wrecking</w>": 36956, "modernization</w>": 47294, "pher": 9194, "dominance</w>": 30546, "eru": 36068, "karnat": 13994, "horrors</w>": 33321, "âĺ": 1741, "equations</w>": 38225, "gif</w>": 11677, "electra</w>": 48959, "à¸§": 26990, "titles</w>": 9780, "ĳ": 239, "wurst</w>": 44409, "geocaching</w>": 47908, "energy": 14974, "becca</w>": 27088, "trous": 19727, "proudest</w>": 46806, "stranger</w>": 14149, "tam": 2661, "itself</w>": 7290, "suki</w>": 32704, "ãĢ": 4092, "cardinal": 46310, "nar": 2977, "pik</w>": 48539, "sponge</w>": 24345, "kazakh": 25451, "ahhh</w>": 14769, "participated</w>": 14252, "turbo": 23578, "sara": 37196, "arine</w>": 29586, "libs</w>": 26401, "vig": 8549, "microsoft": 38650, "ðŁļĤ</w>": 38949, "bu</w>": 5831, "didnt</w>": 13057, "illusions</w>": 47429, "exeter</w>": 18837, "jauregui</w>": 48175, "coyote</w>": 26586, "controversi": 13674, "imdb</w>": 30407, "merc": 34357, "Â¯": 38682, "tagging</w>": 25138, "earn</w>": 8465, "eni</w>": 17538, "michel": 5158, "rainbow</w>": 6286, "divid": 31337, "seneca</w>": 33419, "jÃ¤": 45381, "xfactor</w>": 25211, "eccc</w>": 47401, "justiceleague</w>": 41929, "loveyour": 26462, "scan</w>": 11261, "receipt</w>": 30479, "banks</w>": 6367, "thankful": 38839, "wave": 17530, "minim": 10005, "split": 25443, "spdwy</w>": 45981, "fasting</w>": 24656, "stick</w>": 4987, "wra": 3852, "kel": 2825, "?!</w>": 2835, "lice</w>": 45691, "smil": 33937, "commemorates</w>": 45149, "merr": 48288, "reminiscent</w>": 41704, "??!</w>": 37341, "nws": 23333, "persecu": 22878, "takes</w>": 2633, "aren</w>": 4318, "ukone</w>": 24682, "imposed</w>": 25871, "albuquerque</w>": 31079, "worldly</w>": 36268, "daries</w>": 18184, "stanley</w>": 10079, "squirrels</w>": 26623, "mentoring</w>": 19610, "detected</w>": 26988, "august": 24353, "nep": 20739, "alizing</w>": 13023, "jus</w>": 14999, "saura": 46532, "appropri": 8446, "aaa": 14376, "ðŁĴĽ</w>": 6233, "#âĢ¦</w>": 12834, "withus</w>": 30572, "chooses</w>": 29923, "allo</w>": 18389, "hern": 30571, "bookings</w>": 18345, "formul": 23923, "template</w>": 18591, "kansascity</w>": 46134, "clarify</w>": 37004, "ipc</w>": 41981, "anos</w>": 20132, "tech": 1782, "âĺħâĺħâĺħâĺħ": 34431, "stevens</w>": 13877, "rasta</w>": 47002, "sourdough</w>": 29921, "radar</w>": 9672, "kelley</w>": 23776, "dyke</w>": 32632, "ris": 6108, "ashes</w>": 12587, "liars</w>": 23863, "katie</w>": 9076, "cameo</w>": 19492, "flirting</w>": 35243, "speci": 1969, "price": 13254, "evapor": 33352, "arach": 37689, "o</w>": 334, "followme</w>": 29668, "adapt</w>": 22666, "limited": 49229, "submarine</w>": 19968, "inee": 43252, "trying</w>": 2551, "guetta</w>": 45904, "lego</w>": 7849, "feather": 24905, "fal</w>": 40494, "contract</w>": 6120, "sent</w>": 3676, "scholars</w>": 13818, "risky</w>": 27630, "dave": 10089, "festival</w>": 2240, "eure": 25311, "fad": 12632, "/.</w>": 39382, "ðŁĺİðŁĺİ</w>": 24048, "intuitive</w>": 35224, "tribunal</w>": 32911, "facelift</w>": 36380, "ðŁĺĺâĿ¤</w>": 48409, "midday</w>": 23390, "dusty</w>": 22029, "blog": 16376, "milkyway</w>": 43246, "react</w>": 15065, "oppose</w>": 23617, "dan": 2257, "ilike": 44989, "deta": 1914, "ðŁĵļ": 25433, "pest": 20130, "co</w>": 1320, "newsat</w>": 43979, "cents</w>": 11934, "stak": 39144, "duter": 21624, "joey</w>": 10455, "íĥĢ": 41126, "virgini": 43426, "male</w>": 2801, "monastery</w>": 21850, "khair": 43742, "py": 4005, "tsun": 19155, "afe": 30487, "newsc": 28656, "carcin": 31587, "ists</w>": 8426, "'@</w>": 26397, "Ŀ": 251, "aconf</w>": 38851, "ãĥŃ": 35827, "martina</w>": 34393, "shelley</w>": 22497, "convos</w>": 44842, "quanti": 31540, "confi": 5005, "âĢ¼ï¸ı": 15622, "refurbishment</w>": 35803, "europe</w>": 3848, "applied</w>": 12636, "haus": 41755, "alyn": 49150, "afternoon": 39035, "cci": 32942, "pping</w>": 1682, "psv</w>": 44530, "ingredients</w>": 11788, "throttle</w>": 37139, "humb": 9988, "sweaty</w>": 28419, "brexit</w>": 5801, "civilian</w>": 21187, "jonny": 28454, "telethon</w>": 49266, "serve</w>": 2838, "sare": 13051, "ym": 1786, "vending</w>": 29202, "alis": 21308, "factors</w>": 12733, "erts</w>": 12921, "lace": 30012, "cae</w>": 49264, "tus": 24828, "offl</w>": 16851, "gami</w>": 42025, "perman": 9018, "workouts</w>": 22779, "fr": 936, "season</w>": 1367, "criminal</w>": 8255, "carnaval</w>": 47238, "figurative</w>": 44042, "virtue</w>": 26860, "ðŁĳĩ</w>": 7475, "pioneering</w>": 25933, "occer</w>": 20804, "gli</w>": 28791, "euref</w>": 48017, "liz": 8632, "stony</w>": 35691, "monarchy</w>": 47503, "colle": 1801, "reb": 12370, "pinot</w>": 21146, "mounted</w>": 17897, "pbs</w>": 17908, "evident</w>": 34529, "kasa</w>": 46111, "hank": 35993, "ðŁĴľ": 6832, "lg</w>": 11368, "congratulated</w>": 42004, "fina</w>": 34497, "exorcist</w>": 46309, "useum</w>": 45189, "gosp": 9617, "Ĥ": 224, "mott</w>": 21708, "mcnamara</w>": 37506, "maurice</w>": 20200, "alumini": 22908, "elixir</w>": 42887, "suisse</w>": 35964, "heifer</w>": 48219, "ðŁĳħ": 31833, "gabbana</w>": 36272, "mascara</w>": 31635, "malhotra</w>": 28866, "nsw": 21301, "opi": 40056, "papaya</w>": 44098, "hel</w>": 11579, "elit": 40882, "presi": 1697, "raise</w>": 5078, "rapha": 22754, "believing</w>": 19551, "richer</w>": 34138, "talk": 12462, "à½": 39219, "little": 7024, "backstreet": 46337, "dreadful</w>": 35846, "haired</w>": 27202, "fundamentally</w>": 45378, "acceptable</w>": 14209, "abad</w>": 7155, "kitt": 10840, "bms</w>": 34074, "sosfam</w>": 47709, "phic</w>": 3977, "saku": 37550, "manish</w>": 44720, "israel</w>": 4779, "sapi": 40016, "wielding</w>": 47272, "resulting</w>": 24581, "rbs</w>": 29102, "mixture</w>": 28286, "radi": 5772, "patri": 4771, "tryin</w>": 31085, "Q</w>": 304, "kuro": 28239, "mighty": 26632, "pout</w>": 39621, "ìĤ": 31061, "expre": 6085, "leroy</w>": 32441, "manila</w>": 10969, "euros</w>": 22274, "nem</w>": 45153, "oppo": 7399, "mance</w>": 2324, "generator</w>": 19399, "vt": 31732, "explodes</w>": 38119, "judi": 42546, "ðŁĳħ</w>": 24672, "resource": 43729, "economic</w>": 5259, "tand": 20244, "peach</w>": 11538, "discussion</w>": 5060, "statec": 33931, "!)</w>": 4571, "aster": 11013, "hanley</w>": 47284, "inski</w>": 32630, "dolby</w>": 42414, "comparison</w>": 14186, "pic</w>": 1282, "accept": 16447, "qf</w>": 27215, "batch</w>": 9413, "hav": 13443, "ðŁĻĮ": 4366, "ĕ": 209, "yale</w>": 17157, "embaras": 48019, "cox</w>": 11597, "drc</w>": 21434, "ara</w>": 3340, ")</w>": 264, "paradise</w>": 7247, "denise</w>": 20899, "ðŁĺŃðŁĺŃðŁĺŃ</w>": 13116, "slippers</w>": 26509, "mobi": 9451, "politically</w>": 24323, "recalls</w>": 24740, "barack": 18670, "flirt</w>": 38352, "immerse</w>": 46240, "nik</w>": 13705, "stump</w>": 32064, "cigar": 26031, "flank</w>": 44553, "chel</w>": 25970, "dayswild</w>": 42052, "rak</w>": 26287, "tml": 39445, "metry</w>": 20039, "bracelet</w>": 8969, "dy</w>": 907, "woodworking</w>": 29267, "got</w>": 1005, "featuring</w>": 3706, "ottawa": 49027, "colonel</w>": 22674, "telford</w>": 38323, "rhea</w>": 28612, "roomie</w>": 36851, "podcast</w>": 4294, "jin": 7927, "audi</w>": 10277, "ta": 648, "eras</w>": 39090, "corbin</w>": 35578, "yment</w>": 8199, "shopped</w>": 28088, "ðŁĲĬ</w>": 43974, "manual</w>": 12268, "marianne</w>": 32214, "fantasyfootball</w>": 35713, "Â»</w>": 7599, "ian</w>": 1800, "dux</w>": 28562, "edmonton</w>": 15058, "ext</w>": 20072, "mn": 5086, "qs</w>": 14364, "propos": 9455, "robert</w>": 3929, "pe": 661, "orig": 2273, "eshop</w>": 45570, "illustri": 43116, "ê": 166, "lahat</w>": 42164, "banner</w>": 9185, "extra</w>": 4231, "comm": 965, "ure": 5514, "sighs</w>": 44579, "hofer</w>": 38654, "lowe</w>": 17910, "occurring</w>": 31335, "kbs</w>": 27418, "cherished</w>": 42325, "millar</w>": 41851, "glen": 6158, "monger</w>": 38928, "revel": 14133, "organic": 24080, "doa</w>": 48332, "pant</w>": 22550, "ðŁĺŃðŁĺŃ</w>": 11834, "hayley</w>": 22204, "beth</w>": 4892, "xa</w>": 24831, "kaya</w>": 22752, "referees</w>": 45583, "anniversaire</w>": 30882, "wale": 41247, "spikes</w>": 29582, "hq</w>": 4693, "picnic</w>": 12007, "skil": 24543, "sni</w>": 35570, "aron": 30855, "leather": 21417, "leave</w>": 3258, "folder</w>": 25717, "revising</w>": 46882, "mechanical</w>": 14467, "mister</w>": 18895, "satell": 9031, "ðŁĺ©ðŁĺ©</w>": 38031, "dhary</w>": 28706, "merry": 14167, "pass</w>": 3511, "jake": 13140, "photooftheday</w>": 11933, "santos</w>": 16582, "width</w>": 23571, "fcs</w>": 32095, "warming</w>": 8606, "regret</w>": 14374, "kano</w>": 28201, "????????": 45091, "brioche</w>": 45818, "upgrades</w>": 21253, "bak": 4059, "females</w>": 21028, "ª</w>": 359, "hicks</w>": 23429, "ï</w>": 427, "lydia</w>": 24316, "pw": 19419, "ej": 19887, "outed</w>": 34435, "spinner</w>": 29924, "ibrahim</w>": 20816, "winne": 46273, "!'</w>": 13222, "scy": 27471, "kook</w>": 16003, "jake</w>": 7419, "farage</w>": 28340, "canary</w>": 24523, "sach": 30168, "challengers</w>": 46404, "stanford": 36219, "wardly</w>": 30780, "risers</w>": 44983, "resource</w>": 9760, "muchas</w>": 26278, "ffler</w>": 39819, "gency</w>": 5245, "sno": 8567, "various</w>": 7395, "respecting</w>": 36172, "evolution</w>": 8902, "luminous</w>": 37913, "Ğ</w>": 474, "gaming</w>": 4017, "maintains</w>": 38335, "oya</w>": 38894, "bernar": 11962, "biryani</w>": 46489, "gerard</w>": 20826, "faa</w>": 27577, "youtube</w>": 3895, "dents</w>": 1517, "bump</w>": 15877, "angling</w>": 36824, "heg": 41995, "bsf</w>": 48314, "tested</w>": 10576, "anto": 16826, "hawa</w>": 46278, "goog": 18581, "wort</w>": 30209, "hearts</w>": 5516, "ation</w>": 656, "friedrich</w>": 34171, "rust": 28682, "million</w>": 2506, "retirement</w>": 9205, "ghty": 20968, "reasonable</w>": 18558, "krystal</w>": 36554, "diddy</w>": 33527, "louisville</w>": 13860, "blackops</w>": 43519, "alot</w>": 16945, "eden</w>": 13741, "cong</w>": 24407, "brou": 27874, "autum": 31783, "harmful</w>": 21725, "dena</w>": 32431, "bid": 21035, "taipei</w>": 24356, "veterin": 43959, "near": 11296, "Ķ</w>": 498, "scholar</w>": 12830, "nude</w>": 16630, "humphrey</w>": 31549, "tracklist</w>": 39777, "chas": 10717, "vard</w>": 8773, "hemisphere</w>": 32767, "tote": 48145, "meaning": 14586, "remembers</w>": 12551, "concept</w>": 6353, "flood</w>": 7148, "abhin": 44045, "asam": 40603, "refusal</w>": 46547, "truman</w>": 29414, "ourke</w>": 26480, "dering</w>": 6076, "multipurpose</w>": 47665, "rosie": 43049, "scarlet</w>": 20389, "bosni": 42924, "scicom": 28606, "measurements</w>": 29894, "obamacare</w>": 18005, "uhur": 29434, "kendall</w>": 16238, "xm</w>": 18626, "standard</w>": 5807, "instance</w>": 34572, "passport</w>": 14739, "arrived</w>": 3514, "linda</w>": 10760, "prepared</w>": 7677, "scrimmage</w>": 25216, "sbu": 48075, "lor</w>": 11335, "fotografia</w>": 40256, "dy": 1444, "bid</w>": 5553, "nnn</w>": 26277, "thriving</w>": 22677, "bia</w>": 3841, "hilton": 33621, "eul": 46749, "pub": 20720, "aweather</w>": 28681, "floyd": 46369, "leash</w>": 36192, "stack": 24723, "anirud": 35278, "ðŁĺĺðŁĺĺðŁĺĺðŁĺĺ</w>": 44892, "mocking</w>": 37870, "livepd": 38742, "ssen": 39408, "take": 5052, "pered</w>": 24509, "methods</w>": 12200, "edit": 8239, "akb</w>": 41962, "jahan</w>": 47827, "bobby": 17847, "dota</w>": 23085, "himself</w>": 4530, "swish</w>": 38571, "Ã¡n": 38340, "bleed": 23027, "arized</w>": 40167, "fibrosis</w>": 36307, "glued</w>": 38135, "hookah</w>": 34214, "foamed</w>": 26711, "ðŁĳīðŁı½</w>": 38059, "breakers</w>": 22270, "infused</w>": 21461, "ires</w>": 12435, "suffer</w>": 13557, "tonite</w>": 13449, "âŃ": 5527, "kerswednesday</w>": 48152, "zebra": 47394, "cgc</w>": 38775, "james</w>": 2392, "kyrgy": 40013, "manipu": 40261, "mbc</w>": 20137, "fellows</w>": 15766, "proverb</w>": 34419, "judd</w>": 29770, "ðŁĮŀ": 21152, "khalid</w>": 27166, "claws</w>": 29161, "grimsby</w>": 41513, "hairstyle</w>": 22324, "celine</w>": 33644, "elizabeth": 22397, "querque</w>": 30338, "anza</w>": 14669, "ðŁĵį:</w>": 36845, "fang": 14269, "intent</w>": 18881, "stade</w>": 38198, "âĿ£</w>": 25623, "tandem</w>": 33756, "adelrey</w>": 43627, "islington</w>": 34945, "ðŁĴĵ</w>": 12568, "aeron": 37286, "ðŁĮĪ": 23038, "tryna</w>": 15702, "tms</w>": 44496, "holidays</w>": 5372, "navigating</w>": 33134, "beard</w>": 9052, "1</w>": 272, "signal</w>": 10781, "loveher</w>": 38306, "explorecanada</w>": 36600, "piercing</w>": 22557, "wolve": 45101, "jhal": 45695, "!#</w>": 9670, "sensiti": 20531, "tallest</w>": 19774, "phew</w>": 10295, "helsin": 17842, "adhe": 21175, "foss</w>": 37911, "âĢįâĻ": 5177, "flan": 14572, "offensive</w>": 11037, "begun</w>": 10514, "suppliers</w>": 24196, "batman": 27811, "minted</w>": 49377, "chrono": 29387, "rata</w>": 28568, "attle</w>": 5030, "break": 2206, "lr": 20572, "stairs</w>": 9577, "morethan": 30889, "ðŁİµ": 27435, "yne</w>": 18238, "teamusa</w>": 28625, "âĿĵ</w>": 29791, "ðŁĺ¸</w>": 36912, "amwriting</w>": 9660, "daredevil</w>": 28849, "lend": 45397, "ghaz": 37493, "sheed</w>": 26105, "pitt": 7607, "bedro": 18415, "latel": 49035, "initi": 4580, "lastnight</w>": 30159, "pipes</w>": 16991, "nicotine</w>": 46697, "govt</w>": 5345, "storming</w>": 24842, "donne": 30897, "yey</w>": 45447, "discoveries</w>": 29308, "kade</w>": 41130, "servic": 27115, "anga</w>": 11641, "royd</w>": 41476, "aquaman</w>": 35098, "let": 1898, "mondaymotivaton</w>": 47034, "windmill</w>": 34084, "fork": 24501, "tions</w>": 1371, "normali": 45157, "antha</w>": 47981, "hardcover</w>": 31123, "ael</w>": 43340, "feds</w>": 30593, "tuss": 31741, "porsche": 44049, "peers</w>": 21626, "itis</w>": 8388, "trell</w>": 35159, "crossings</w>": 43517, "mpc</w>": 38560, "gett": 6647, "jamaica</w>": 13019, "armistice</w>": 46765, "bernardo": 27137, "swapping</w>": 44702, "guilty</w>": 9761, "ðŁĲİ": 48281, "sling</w>": 32607, "tya</w>": 41273, "lewi": 19589, "exam": 4428, "costa</w>": 10480, "flix</w>": 40663, "captiv": 19776, "borgh": 17180, "pediatric</w>": 22071, "refreshing</w>": 14159, "avin": 46204, "bur</w>": 17362, "spir": 3745, "scribed</w>": 38334, "gravity": 47426, "supercell</w>": 43227, "nz": 10142, "genoa</w>": 43993, "nels</w>": 19296, "hok</w>": 47167, "ff": 1021, "waits</w>": 21361, "gates</w>": 9472, "off</w>": 1007, "onized</w>": 43657, "lava</w>": 16765, "earning</w>": 14550, "fines</w>": 25053, "names</w>": 6130, "pigment</w>": 40284, "nys</w>": 23423, "analog</w>": 19963, "contestalert</w>": 27313, "latam</w>": 40012, "postdoc</w>": 41013, "sorted</w>": 13221, "sweat</w>": 12663, "nie": 9524, "ist</w>": 2304, "porridge</w>": 34924, "shopify</w>": 47949, "modal</w>": 33157, "philosoph": 10187, "twilight": 46366, "usrc</w>": 33274, "photog</w>": 28115, "quoteoftheday</w>": 19975, "papa</w>": 12211, "doop</w>": 33886, "eners</w>": 48208, "endale</w>": 20290, "hcs</w>": 46850, "eq": 39331, "naval</w>": 13273, "exchanges</w>": 29730, "cyn": 14324, "importantly</w>": 21580, "thill</w>": 31266, "formally</w>": 24867, "fourthofjuly</w>": 47805, "nite</w>": 8427, "idea</w>": 3612, "herrera</w>": 27755, "rale": 14192, "diesel</w>": 10591, "agent": 21210, "zx</w>": 31604, "cafes</w>": 40166, "release": 29100, "molly": 24368, "otc</w>": 37934, "wolverhampton</w>": 34518, "ðŁ¦": 6040, "bibl": 20912, "summed</w>": 34912, "ðŁļ¨</w>": 6056, "contractors</w>": 22427, "transitions</w>": 39374, "omes</w>": 25736, "outcome</w>": 16552, "stream": 8659, "recreate</w>": 29775, "princes": 45329, "dragonball": 40959, "bonne</w>": 25844, "theflash</w>": 25434, "arctic</w>": 9138, "karim</w>": 33477, "quicker</w>": 29211, "jane": 12389, "ures</w>": 2288, "urges</w>": 16692, "holland": 31608, "barons</w>": 45596, "evement</w>": 8210, "gallon</w>": 24615, "tore": 38066, "planet": 16833, "kail": 23623, "marlene</w>": 45117, "crowds</w>": 16092, "rally</w>": 5041, "galway": 38045, "pomona</w>": 41690, "alarms</w>": 31236, "potholes</w>": 47506, "shipwreck</w>": 48878, "rowan</w>": 26240, "confidence</w>": 8510, "ðŁİ¼</w>": 23757, "bond": 37022, "smartphones</w>": 22212, "dawson</w>": 18611, "starter</w>": 7800, "ikh": 44655, "hasta</w>": 36623, "jin</w>": 8485, "novella</w>": 42770, "ince</w>": 44303, "tourism</w>": 6556, "tamed</w>": 40575, "manuscript</w>": 24365, "plum</w>": 16202, "upsets</w>": 42637, "arro": 15729, "kitty</w>": 8417, "relev": 9349, "publisher</w>": 20455, "guise</w>": 42024, "euro": 2039, "char</w>": 16017, "achilles</w>": 33327, "tracey</w>": 25558, "addressed</w>": 20817, "crispr</w>": 39784, "dancing</w>": 6226, "ðŁİ¶": 11755, "worldwide</w>": 6214, "geel": 25906, "eau</w>": 17608, "quoi</w>": 45549, "nig": 27933, "thoroughly</w>": 19750, "kill</w>": 4367, "allow</w>": 6722, "headphone</w>": 37524, "downton</w>": 42668, "straight": 22114, "existential</w>": 38752, "macbook</w>": 20617, "rankings</w>": 12596, "ipo": 40218, "carat</w>": 32981, "incorporating</w>": 40303, "azam</w>": 34727, "truss</w>": 46080, "missing": 23509, "hey": 10759, "ichick</w>": 45022, "eritrea</w>": 30738, "rid": 18103, "half</w>": 2349, "afrin</w>": 45586, "exol</w>": 42856, "bran": 3684, "visionary</w>": 22959, "residentevil</w>": 48393, "summon</w>": 39782, "newell</w>": 41436, "fiel": 1361, "bragging</w>": 38199, "rey</w>": 4517, "aida</w>": 33830, "pag</w>": 30525, "burma</w>": 30305, "goalie</w>": 20723, "phenom</w>": 39618, "allegiance</w>": 30955, "receptions</w>": 46881, "michaels</w>": 23868, "enne": 21176, "hooking</w>": 35240, "stec</w>": 46713, "arena</w>": 5463, "fitz": 11120, "dare</w>": 9863, "summon": 27622, "bbcone</w>": 28259, "het": 37527, "zach</w>": 11815, "alan</w>": 5773, "lockdown</w>": 35636, "patory</w>": 41859, "jewelry</w>": 6039, "visional</w>": 24627, "fee": 28242, "imwithher</w>": 32651, "ensuring</w>": 19403, "le": 534, "etour</w>": 41462, "surprises</w>": 16920, "supper</w>": 15727, "raps</w>": 37887, "who</w>": 822, "tub</w>": 15450, "scandal</w>": 11622, "berger": 35933, "zeus</w>": 32800, "tabletop</w>": 25773, "wolfe</w>": 24989, "bels</w>": 43127, "kurdish</w>": 21644, "impressionist</w>": 44904, "drug</w>": 5600, "transporting</w>": 42259, "baker": 27303, "solst": 20298, "gusta": 23024, "rohing": 23600, "topp": 19529, "iah</w>": 35052, "entourage</w>": 47893, ",...</w>": 20365, "nil": 16852, "rk": 38725, "rollercoaster</w>": 38248, "groundbreaking</w>": 21006, "sinner</w>": 45380, "bogota</w>": 47059, "callum</w>": 23224, "lala</w>": 33661, "auton": 13100, "ë§": 28024, "fanfest</w>": 42916, "wanderlust</w>": 16129, "laven": 15047, "tuesday": 10209, "dob": 29640, "isha</w>": 28050, "howar": 37672, "utpol</w>": 42605, "jocelyn</w>": 47259, "swagger</w>": 35797, "rela": 4362, "headset</w>": 23883, "cabo</w>": 28370, "solo": 17626, "bengaluru</w>": 21707, "pump": 5179, "ðŁ¤Ķ": 12706, "shaun": 23446, "ligam": 31077, "pillars</w>": 22054, "kicker</w>": 26338, "calvert</w>": 47134, "restroom</w>": 43423, "ðŁİĪ": 16142, "turbulent</w>": 47871, "ðŁĩ±ðŁĩ": 40941, "reservations</w>": 19307, "destinations</w>": 16981, "signage</w>": 21156, "ðĿĹ": 18865, "tana</w>": 21396, "ath</w>": 1649, "nadi": 30512, "koo": 12225, "xoxo</w>": 13313, "finn</w>": 16925, "keaton</w>": 29975, "matty</w>": 29176, "unis</w>": 39266, "cheaper</w>": 17776, "harbor</w>": 10202, "balot": 44615, "olis</w>": 49397, "hoppy</w>": 38359, "garis</w>": 37839, "daddy": 29466, "innocence</w>": 26383, "strick": 25181, "bolic</w>": 27343, "jacked</w>": 27923, "ge": 619, "mollie</w>": 48203, "liebe</w>": 37749, "e": 68, "inews</w>": 24300, "gress</w>": 2752, "pavilion</w>": 13374, "scaffolding</w>": 41687, "jaime</w>": 24716, "fre</w>": 43165, "render": 39752, "ðŁĴªðŁı¼": 32041, "adorned</w>": 44953, "madhu": 23000, "âłĢâłĢâłĢâłĢâłĢâłĢâłĢâłĢ": 46063, "steering</w>": 19833, "talis": 36480, "mystic</w>": 23722, "test": 7738, "margar": 16838, "ial</w>": 1974, "troy": 26283, "accepts</w>": 22338, "kuch</w>": 39394, "oakland</w>": 12077, "awarded</w>": 7368, "schu": 11318, "constraints</w>": 41910, "towin</w>": 45819, "hampton</w>": 12285, "ĭãģ": 36218, "renamed</w>": 31535, "lies</w>": 3205, "sat": 1382, "ðŁĮ¾</w>": 39796, "appeti": 24179, "etsym": 22902, "gtr</w>": 33407, "thes</w>": 6460, "walia</w>": 44455, "tou</w>": 29261, "transforming</w>": 19251, "youare": 33879, "jal</w>": 26773, "ofi</w>": 49090, "honor</w>": 3402, "bank": 7061, "completing</w>": 14949, "boyle</w>": 22802, "stingly</w>": 49332, "size": 38377, "auckland</w>": 16072, "santam": 45627, "nourished</w>": 48354, "sundayfunday</w>": 21565, "showtime</w>": 15442, "ube</w>": 30892, "wikileaks</w>": 28731, "oline</w>": 17441, "thren</w>": 41776, "combe</w>": 14363, "escu": 36517, "flora</w>": 18906, "usgs</w>": 35103, "frustrated</w>": 25111, "amherst</w>": 39065, "kind": 7204, "peters</w>": 16336, "filmfare</w>": 42224, "increasing</w>": 10270, "toby": 29659, "portion</w>": 13739, "ðŁĴĵ": 20628, "evers</w>": 31914, "flee</w>": 30167, "vector</w>": 21533, "supplying</w>": 32739, "tc": 6820, "âľĮï¸ı": 21906, "hele</w>": 46129, "sarasota</w>": 31990, "gravitational</w>": 45268, "newyork": 18140, "ãĢĲ</w>": 12534, "tomor": 1277, "bury</w>": 3899, "endorsed</w>": 24307, "skyline</w>": 14606, "litur": 36830, "strikers</w>": 33465, "angle": 21749, "embarrassing</w>": 19653, "ðŁĩ©ðŁĩª</w>": 21531, "phx": 35466, "ep</w>": 1117, "encourages</w>": 23848, "sundaywithmarsha</w>": 26662, "inhe": 32617, "lesson</w>": 7714, "adju": 16413, "yr": 18395, "âĸ¶ï¸ı</w>": 14442, "getic</w>": 20661, "adobe</w>": 16484, "boi</w>": 12673, "git": 16060, "insisted</w>": 40423, "mese</w>": 42018, "natalia</w>": 32978, "hye</w>": 25792, "helen</w>": 11291, "counter": 10134, "roland</w>": 19569, "tÃ©": 27208, "consciously</w>": 46755, "timothy</w>": 18560, "hurdles</w>": 25440, "geor": 2549, "paedi": 41488, "launches</w>": 7023, "à¤¹</w>": 29446, "forged</w>": 28105, "contributes</w>": 34203, "system": 47813, "pon": 3809, "separating</w>": 43480, "bristol</w>": 8010, "spectre</w>": 35998, "worldcup": 42525, "meds</w>": 25075, "caring</w>": 13083, "sani</w>": 34492, "burk": 48822, "hina</w>": 40571, "popp": 13156, "swapped</w>": 39077, "hhhhhh</w>": 37278, "compreh": 42976, "empathy</w>": 22420, "âŃĲï¸ı</w>": 10251, "gga</w>": 26003, "yuma</w>": 47566, "possibility</w>": 18517, "nutrient</w>": 32900, "ucl": 12013, "axial</w>": 46550, "toby</w>": 18333, "crowded</w>": 20182, "amrit": 33849, "batt": 2407, "age": 4758, "two": 17211, "kah": 16068, "mam": 4404, "regrets</w>": 23231, "ture</w>": 941, "wiiu</w>": 40980, "ãĥª": 32115, "tempt</w>": 28460, "usc": 13346, "dyer</w>": 29495, "nuh</w>": 45950, "intestin": 37938, "teacher": 18051, "animals</w>": 4995, "ðĿĺ": 26109, "byn": 46917, "plantbased</w>": 33720, "muslim</w>": 7060, "crumbs</w>": 35893, "stee": 31793, "planets</w>": 22315, "carlo</w>": 15266, "kal": 4187, "financial": 19783, "historymonth</w>": 19356, "accompli": 10205, "parcel</w>": 30367, "archi": 4479, "twright</w>": 46778, "pang": 16756, "catal": 12792, "rushed</w>": 28104, "§</w>": 356, "ãĥŀ": 48924, "reformation</w>": 45119, "looks</w>": 1606, "airplane</w>": 16451, "scenery</w>": 16025, "streetart</w>": 12948, "âĢĵ": 21070, "gallagher</w>": 19168, "availability</w>": 17551, ")\"</w>": 13046, "herd</w>": 18589, "pink": 11151, "feminism</w>": 18784, "apex</w>": 23712, "bueno</w>": 46202, "sok</w>": 43456, "lanyard</w>": 46808, "hor</w>": 33847, "baske": 3713, "vinnie</w>": 40885, "tests</w>": 8715, "innovations</w>": 18817, "process</w>": 4078, "bosa</w>": 46946, "automotive</w>": 12607, "similarities</w>": 34716, "nunavut</w>": 48626, "íĺ": 15962, "intram": 40956, "pull": 20155, "reckless</w>": 26284, "newest</w>": 4990, "chakra": 38304, "feliz": 26104, "rj</w>": 20949, "ume": 38480, "hang": 3351, "sica</w>": 34125, "scotland</w>": 4203, "coincidence</w>": 19807, "actonclimate</w>": 43797, "denis": 47630, "wellbeing</w>": 14273, "standalone</w>": 44887, "limbs</w>": 34886, "thier</w>": 25595, "entry</w>": 5362, "asc": 22720, "kron": 25999, "removes</w>": 29018, "silverado</w>": 46160, "linn</w>": 37431, "kennel</w>": 39595, "sivity</w>": 42738, "coding</w>": 12647, "depar": 10794, "protector</w>": 20441, "illed</w>": 2527, "witz</w>": 13265, "shimi</w>": 40517, "retweeted</w>": 12705, "Ģï¸ı</w>": 5511, "datasci": 14496, "hbd</w>": 13594, "chicks</w>": 17810, "ðŁĺĤðŁĺĤðŁĺĤðŁĺĤ": 9936, "âĿ¤ï¸ı": 2626, "mozambique</w>": 28831, "gdp</w>": 17100, "bob</w>": 4423, "pro": 644, "ausbiz</w>": 46543, "theri": 28967, "rhino": 41744, "wilderness</w>": 16506, "yuk</w>": 24063, "thard</w>": 43474, "embracing</w>": 22196, "astor": 26391, "associate</w>": 11777, "(;</w>": 23983, "purchases</w>": 21887, "rose": 6146, "monsters</w>": 11546, "à¤¬</w>": 43599, "kesh</w>": 19751, "ance": 7165, "golds</w>": 40283, "pressed</w>": 20080, "schur": 42475, "variant</w>": 20293, "simultaneous</w>": 48816, "coy": 12765, "aceous</w>": 33610, "sizing</w>": 28330, "pover": 8432, "Ą": 192, "meta": 14803, "ory</w>": 1985, "durban</w>": 24474, "woohoo</w>": 20172, "hue</w>": 21465, "absc": 25389, "wp": 15378, "bunk</w>": 41236, "cursed</w>": 26408, "sum": 7054, "hitch": 22937, "appalling</w>": 44797, "guinness</w>": 16648, "solicitors</w>": 46000, "za": 3710, "bro": 927, "brs</w>": 47485, "vengeance</w>": 32057, "weeds</w>": 26326, "ãģ¦": 48029, ";-": 35657, "itable</w>": 8915, "bankruptcy</w>": 23978, "ey": 1541, "cj</w>": 15205, "connections</w>": 37161, "winds</w>": 7012, "rethink</w>": 29078, "nvidia</w>": 27325, "bandwidth</w>": 48859, "tak": 15070, "ano</w>": 2658, "ðŁĲĲ": 47735, "psc</w>": 43118, "explan": 13294, "milwaukee</w>": 14259, "tours</w>": 8948, "sams</w>": 44667, "cashier</w>": 34547, "eldest</w>": 33503, "favorited</w>": 36926, "tzer</w>": 45267, "wakes</w>": 29108, "marina</w>": 12060, "arthritis</w>": 22916, "chead": 48358, "guatemala</w>": 21670, "thead</w>": 25259, "ðŁĺľ": 13226, "rohan</w>": 39848, "puli</w>": 47293, "loan": 28431, "ldr</w>": 37279, "alab": 6365, "exceeds</w>": 49353, "rehabilitation</w>": 21042, "millenni": 10406, "vaccines</w>": 25860, "reu</w>": 40371, "sct</w>": 39284, "meer</w>": 27555, "whi</w>": 33129, "fidd": 25218, "ently</w>": 2922, "rupees</w>": 44110, "cabin</w>": 14178, "iq": 15554, "semic": 26967, "elding</w>": 28223, "middle": 9849, "hudson</w>": 11260, "computing</w>": 12732, "solom": 15768, "infec": 26088, "sions</w>": 4060, "opel</w>": 36952, "extraction</w>": 28789, "doms</w>": 30126, "selen": 19970, "glob": 13363, "thats</w>": 9254, "conte</w>": 26882, "worshi": 31840, "requirements</w>": 12860, "vocation</w>": 20521, "mccre": 25393, "ravioli</w>": 43460, "eta</w>": 8761, "shy</w>": 9682, "cols</w>": 35726, "salvation</w>": 19534, "takers</w>": 30775, "drainthe": 47337, "puram</w>": 46174, "andor": 45243, "hack": 6610, "willing": 34160, "rother": 23174, "caster</w>": 8449, "and": 672, "itar</w>": 47161, "goblin</w>": 26223, "ousness</w>": 10689, "lowered</w>": 34968, "elets</w>": 19400, "theori": 34804, "ragn": 24125, "tackling</w>": 19628, "robbery</w>": 16393, "sport": 4379, "thol": 29319, "approves</w>": 18107, "clicking</w>": 26542, "hide": 17725, "ðŁĳł</w>": 41264, "ppen</w>": 30663, "venom</w>": 21588, "crest": 35985, "glimp": 12888, "arosa</w>": 44264, "philips</w>": 25175, "ambassador</w>": 6795, "pless": 39821, "harrington</w>": 34340, "increasingly</w>": 16106, "ðŁıĩ": 45789, "spn": 35467, "sci</w>": 8309, "aerial</w>": 12440, "brittany</w>": 18818, "smh</w>": 9623, "construction</w>": 4585, "spotlight</w>": 7901, "investor</w>": 15490, "economists</w>": 43701, "Ô": 144, "hahahahahahahaha": 36126, "wir": 16849, "kai": 12752, "-...</w>": 43147, "endorses</w>": 34603, "ichi": 21669, "moore</w>": 6708, "going": 25787, "proper</w>": 8205, "alleges</w>": 45051, "pinion</w>": 40557, "fuel</w>": 5945, "parkinson</w>": 28129, "hasbro</w>": 37405, "tators</w>": 37206, "sni": 7186, "consumer</w>": 10422, "approach</w>": 6241, "rella</w>": 9952, "receiver</w>": 17659, "stras": 36814, "unexpected</w>": 12293, "acan</w>": 26318, "repeats</w>": 39158, "%-</w>": 48784, "substitu": 18529, "aege": 42304, "op</w>": 3691, "itez</w>": 42131, "packaging</w>": 11658, "without</w>": 2193, "irrit": 24218, "mono": 8220, "dagger</w>": 34251, "panoramic</w>": 22563, "cricke": 19098, "twain</w>": 30689, "aldu": 6505, "la</w>": 1210, "uca</w>": 30942, "sketching</w>": 23228, "maryam": 33636, "ong</w>": 846, "hays</w>": 41524, "ard</w>": 746, "streaming</w>": 6278, "ðŁĺŀ</w>": 21103, "clicks</w>": 31250, "prince": 9457, "ë§Ī": 40027, "webster</w>": 19471, "unofficial</w>": 22506, "retailers</w>": 19418, "gets</w>": 2127, "miserable</w>": 26196, "..!!</w>": 23707, "johann</w>": 31180, "magin": 42678, "commerce</w>": 8333, "perception</w>": 20591, "tray": 38470, "nt</w>": 3207, "ncc</w>": 36686, "elsa</w>": 22050, "smi": 5655, "âĺĨ": 23941, "cious</w>": 38466, "piled</w>": 26873, "yar</w>": 23071, "icans</w>": 20511, "apra": 37027, "pacific": 19723, "charter</w>": 13569, "caption</w>": 11327, "bankers</w>": 30599, "ppl</w>": 6758, "tedu</w>": 42517, "turismo</w>": 30202, "not</w>": 783, "efficiency</w>": 11823, "ê°ĵ": 41076, "alvarez</w>": 26924, "were</w>": 1365, "tool": 13718, "îĲĴ": 40100, "own": 3845, "poop</w>": 23310, "notjust": 33212, "resignation</w>": 24779, "cozy</w>": 14873, "vs</w>": 1547, "swings</w>": 29141, "athome</w>": 38217, "modern": 11706, "horny</w>": 32622, "fought</w>": 10844, "fridayreads</w>": 37736, "calm</w>": 7011, "fightfor": 48909, "rayn": 47852, "karti": 23053, "formulated</w>": 45066, "handcrafted</w>": 22185, "chants</w>": 22723, "breathtaking</w>": 14709, "lumb": 36231, "ptv</w>": 42402, "aides</w>": 49082, "happens</w>": 4988, "alex": 2959, "mex": 3213, "tweetyour": 45033, "brows</w>": 14998, "vinyl": 22835, "sterone</w>": 39418, "hex": 16255, "await</w>": 20769, "mikequind": 33508, "spurs</w>": 10916, "throws</w>": 14723, "chuk": 25878, "orb</w>": 36958, "offro": 32198, "focusing</w>": 15551, "eri": 2769, "gig</w>": 7471, "gone": 35135, "aram</w>": 21473, "svp</w>": 28465, "bnha</w>": 49336, "amino</w>": 33464, "avocado</w>": 14135, "chopin</w>": 42256, "passports</w>": 46368, "hiddleston</w>": 31444, "impressive</w>": 6634, "fex": 41584, "achiever</w>": 46286, "saharan</w>": 44255, "fremantle</w>": 48012, "hale": 37038, "mela</w>": 35032, "knocked</w>": 15325, "tips</w>": 3173, "single": 19524, "scarcity</w>": 45812, "hobo</w>": 41334, "now</w>": 692, "G</w>": 294, "aleppo</w>": 19258, "care": 2050, "yellowstone</w>": 29241, "cko</w>": 28818, "foodsecurity</w>": 49329, "leith</w>": 34141, "zim</w>": 22577, "arizona</w>": 7106, "favorite</w>": 1916, "alain</w>": 28999, "simpsons</w>": 21092, "slic": 19692, "hamburger</w>": 33928, "consume</w>": 28919, "barunsob": 41398, "fest": 17383, "guj": 34935, "chups</w>": 46331, "amounts</w>": 16747, "siamese</w>": 43161, "ãĤ¹</w>": 39220, "bury": 12276, "-âĢ¦</w>": 30047, "asha</w>": 13472, "mumb": 5850, "atr</w>": 43247, "abou</w>": 44053, "mahan": 45191, "...</w>": 678, "weighs</w>": 20481, "plan</w>": 2970, "therine": 26807, "à®ª</w>": 47388, "meats</w>": 29558, "kazakhstan</w>": 26720, "civil": 6923, "hester</w>": 31105, "bricks</w>": 21029, "lgbtq": 47625, "bishop": 20625, "facilit": 13567, "supremacy</w>": 28913, "ag</w>": 5241, "rivalry</w>": 19511, "sorrow</w>": 28020, "twe": 18365, "bsbi": 41728, "camil": 37745, "champion": 2643, "bystand": 46138, "adidas</w>": 9589, "pug": 20950, "carbs</w>": 29313, "mashup</w>": 27079, "complexion</w>": 47732, "ahah</w>": 38661, "vey</w>": 3884, "immort": 39244, "edchat</w>": 14702, "geology</w>": 21578, "kak": 10401, "childcare</w>": 31133, "him": 4128, "halla</w>": 29569, "cancel": 12026, "friction</w>": 38563, "mindset</w>": 14217, "gaa</w>": 10715, "davison</w>": 43725, "compartment</w>": 40383, "diego": 30940, "kashmir": 20251, "glamping</w>": 46167, "robi</w>": 16743, "vangogh</w>": 47849, "syn</w>": 36090, "filmmaking</w>": 18226, "hepatitis</w>": 32169, "seizure</w>": 36804, "came</w>": 1986, "neptune</w>": 30566, "waltdisneyworld</w>": 36505, "morph</w>": 41700, "ammo</w>": 33474, "brute</w>": 47552, "virtual": 18059, "gz</w>": 35841, "^-": 43516, "white</w>": 1579, "innis": 44059, "sneaks</w>": 40926, "dyssey</w>": 17435, "ayne</w>": 35669, "callister</w>": 49026, "paradi": 6658, "âĻ¦</w>": 47547, "tele": 3103, "snap</w>": 7404, "erra</w>": 48446, "0</w>": 271, "commute</w>": 15898, "atif</w>": 41592, "somer": 9656, "inj": 5112, "obligation</w>": 34473, "mmon</w>": 41131, "ieee</w>": 39860, "nlwx</w>": 49260, "fect</w>": 31293, "adriana</w>": 41363, "dysfunctional</w>": 40757, "duterte</w>": 22371, "seafood</w>": 12472, "sex": 3548, "scand": 8110, "danish</w>": 15467, "ild": 22278, "jel": 9794, "bose</w>": 23142, "clarence</w>": 29320, "ðŁĺĤðŁĺį</w>": 43128, "whichever</w>": 49138, "atz</w>": 30432, "pas": 1341, "suits</w>": 9949, "mos": 28658, "lazarus</w>": 49126, "sickle</w>": 41459, "refresher</w>": 41481, "reale": 5930, "cargo</w>": 12490, "distric": 3208, "ic</w>": 1029, "stim": 18269, "voltron</w>": 39314, "digits</w>": 31710, "widget</w>": 43906, "ðŁĳ©âĢį": 26304, "elba</w>": 48598, "aste": 25033, "otta": 7623, "transitional</w>": 41519, "hed": 18271, "Ç": 131, "visitscotland</w>": 28760, "sclub</w>": 20017, "ute": 16856, "gano</w>": 25304, "sect</w>": 15772, "grl</w>": 48005, "ggling</w>": 16523, "embark</w>": 33953, "aldridge</w>": 38084, "wallpapers</w>": 29841, "intended</w>": 16812, "inely</w>": 18234, "trium": 21065, "ates": 20370, "galvani": 46046, "prefer</w>": 11450, "journeys</w>": 23329, "cornwall": 37903, "henri</w>": 21610, "dinesh</w>": 48341, "thu</w>": 14153, "ayurve": 27185, "beaver</w>": 22874, "exem": 19753, "stour": 37361, "pennies</w>": 43094, "repaired</w>": 32953, "liqui": 33817, "daisy</w>": 12865, "joaquin</w>": 30745, "}": 92, "barbados</w>": 26992, "coa</w>": 29167, "E": 36, "disease</w>": 5336, "episcopal</w>": 31221, "chicagofire</w>": 46576, "morty</w>": 37391, "jw": 30221, "workforce</w>": 14672, "ical</w>": 1110, "tailgate</w>": 23168, "crocker</w>": 47843, "embr": 35267, "âı±</w>": 33149, "counc": 12927, "pse": 19737, "debbie": 47186, "ponty": 45152, "commands</w>": 38163, "fabulous</w>": 5189, "dogg</w>": 20749, "tvc</w>": 49190, "tiara</w>": 38322, "maps</w>": 8765, "dominate</w>": 21431, "stoo": 24505, "bachel": 11283, "wages</w>": 19114, "parenthood</w>": 23887, "restocked</w>": 36966, "iti": 760, "âĿ": 1045, "fintech": 48929, "polyne": 38892, "ðŁĺ©ðŁĺ©ðŁĺ©</w>": 49063, "emu": 48149, "fosters</w>": 37644, "tough</w>": 5499, "northeast</w>": 13009, "ferra": 47911, "sday": 5902, "lester</w>": 24023, "developing</w>": 8131, "gutter</w>": 40537, "bite</w>": 41613, "brendan": 35134, "ornithology</w>": 38275, "temporary</w>": 6513, "beard": 26157, "ias</w>": 14620, "âģ©,</w>": 48749, "nv": 17217, ")))</w>": 18305, "tomorrowspaperstoday</w>": 35190, "tortured</w>": 29900, "knew</w>": 5009, "wille": 48739, "odell</w>": 41556, "sentences</w>": 25858, "ðŁı»âĢįâĻĤï¸ı</w>": 30984, "double</w>": 3200, "lakewood</w>": 36417, "indone": 6180, "alise</w>": 36718, "forti": 26984, "turban</w>": 48515, "yang</w>": 12605, "rap": 7773, "negativity</w>": 34658, "missou": 30710, "autonomous</w>": 20722, "bod</w>": 26340, "bertrand</w>": 41594, "land": 1567, "vice": 43572, "hear": 2749, "grants</w>": 15123, "qr</w>": 18193, "accountable</w>": 24216, "dak": 6999, "hydrated</w>": 23300, "currencies</w>": 23530, "tmltalk</w>": 42260, "chrome": 24843, "inv</w>": 43786, "curtain</w>": 17223, "rime</w>": 27064, "copenhagen</w>": 17390, "bba</w>": 27762, "chase</w>": 3859, "nhl": 12290, "dummies</w>": 40899, "<": 27, "criminal": 30197, "items</w>": 6207, "tiny</w>": 5591, "gri</w>": 18484, "ulture</w>": 22272, "awaz</w>": 18586, "wed</w>": 3478, "mower</w>": 30895, "awk": 8888, "ðŁĩºðŁĩ¸ðŁĩºðŁĩ¸": 18739, "mtvbr": 47258, "ober": 15284, "fierc": 48609, "oooooo": 43590, "exempl": 36371, "bin</w>": 5346, "tilt</w>": 23601, "tag</w>": 3640, "kigali</w>": 40278, "sudan</w>": 13474, "epa</w>": 15866, "smoother</w>": 44271, "mecca</w>": 36095, "cooke</w>": 29979, "repre": 3397, "unconscious</w>": 34791, "tyne": 27000, "exploit</w>": 36953, "discu": 1984, "ind": 5386, "crowd": 12036, "wasnt</w>": 29607, "boutique</w>": 12179, "ìĽ": 22543, "pump</w>": 9173, "louisvuitton</w>": 44911, "chillout</w>": 39842, "advantages</w>": 23506, "blondie</w>": 39236, "uw</w>": 19166, "grooming</w>": 25575, "sax": 14169, "tey</w>": 32395, "aish": 21946, "instructors</w>": 31998, "schel": 39881, "vais</w>": 28719, "imprisonment</w>": 39024, "ignore</w>": 12304, "overlooked</w>": 27632, "hela</w>": 48212, "inec</w>": 45214, "alphabe": 45796, "frey": 22136, "montgom": 13852, "djing</w>": 36113, "brazili": 45697, "legislature</w>": 22309, "escal": 15902, "douglass</w>": 45692, "estate</w>": 6159, "scollege</w>": 39536, "premise</w>": 45952, "uli": 41841, "bucha</w>": 43582, "flotus</w>": 35181, "chy": 15131, "efficient</w>": 11334, "trin": 6628, "manned</w>": 26139, "lac": 4477, "johansson</w>": 41512, "mers</w>": 4199, "...@</w>": 12672, "removing</w>": 18504, "sid</w>": 15119, "cairn</w>": 42467, "uhh</w>": 35938, "weekdays</w>": 44330, "movie": 11247, "glasgow</w>": 7363, "sinfo</w>": 47178, "dick": 14413, "$": 3, ":'": 8017, "sphe": 33691, "syrah</w>": 45364, "éģ": 44854, "formu": 8689, "tum</w>": 8843, "marin</w>": 23992, "yur": 42533, "motogp</w>": 16615, "contribution</w>": 11116, "xox": 11531, "guern": 29277, "solidi": 46136, "adap": 6341, "anians</w>": 39393, "connecting</w>": 41429, "tiger</w>": 6531, "pikach": 27268, "stains</w>": 32008, "jais": 48607, "domin": 4361, "announcing</w>": 11593, "gul": 5530, "aap</w>": 12052, "nationally</w>": 15130, "isleof": 24718, "west</w>": 1593, "summerslam</w>": 40264, "rink</w>": 21497, "margot</w>": 37144, "ãĢĤ": 38060, "thealth</w>": 31398, "ickers</w>": 30701, "gymnastics</w>": 20116, "verstappen</w>": 45064, "em</w>": 2270, "exports</w>": 20088, "mad": 2740, "kelvin</w>": 32859, "ðŁĻĭ</w>": 30274, "peanu": 25843, "copen": 15637, "urine</w>": 28864, "authentication</w>": 39746, "plugs</w>": 28083, "reap</w>": 31334, "catherine": 35035, "explored</w>": 25016, "tened</w>": 13682, "timed</w>": 32727, "qualifier</w>": 18733, "hic": 3549, "remotely</w>": 32375, "yourself</w>": 3053, "doctors</w>": 9705, "privileged</w>": 18166, "zik</w>": 30125, "cajun": 43425, "enes</w>": 42066, "snee": 42095, "gopal</w>": 47268, "rese": 13000, "tna</w>": 21150, "+/-</w>": 47614, "nearing</w>": 26571, "tani</w>": 32985, "ðŁİĪðŁİī</w>": 48049, "stanis": 37711, "tourde": 39247, "vau": 6391, "pivo": 18009, "obile</w>": 20513, "chment</w>": 20848, "recall</w>": 15151, "stlcards</w>": 28644, "cer": 1364, "raspberries</w>": 37742, "standup": 35108, "ðŁĮ": 1576, "cara</w>": 20016, "³": 111, "giftide": 20152, "ego": 34712, "typo": 18831, "simplify</w>": 35479, "lilac</w>": 33647, "oba</w>": 15147, "lulu</w>": 26935, "outlines</w>": 29159, "carnage</w>": 31385, "wayback": 47822, "atra</w>": 14401, "à¸Ħà¸": 39628, "rae": 21646, "beetro": 29251, "gales</w>": 48633, "isai": 15365, "kle": 7612, "licensed</w>": 18752, "fj</w>": 46447, "elland</w>": 43326, "âľ": 1508, "vinyl</w>": 5754, "tempest</w>": 36053, "companions</w>": 37124, "push</w>": 6831, "tls</w>": 47367, "marty</w>": 17169, "tere": 11329, "outh": 16933, "onwards</w>": 20682, "unless</w>": 10602, "bleach</w>": 27034, "earl": 30573, "spectators</w>": 39306, "mass": 4636, "pri</w>": 23400, "clin": 2879, "ter</w>": 652, "chances</w>": 10870, "loy</w>": 23929, "wha": 18994, "restored</w>": 14238, "heartfelt</w>": 22904, "phase</w>": 8304, "fig</w>": 20719, "eze": 25993, "doj</w>": 25700, "abre": 22472, "uw": 13933, "depress": 38869, "demsin": 42664, "milton": 39004, "dawgs</w>": 26431, "stationary</w>": 29493, "khalifa</w>": 21389, "another</w>": 1380, "ulla</w>": 30577, "imran": 19647, "airtime</w>": 46617, "beats</w>": 6289, "wiring</w>": 36434, "bim": 46737, "rion": 31623, "mento</w>": 30582, "trent</w>": 15548, "situation</w>": 7144, "ihri": 39108, "manuel": 29171, "wsu</w>": 32913, "uly": 33220, "dont": 8094, "hurricanes</w>": 22357, "cello</w>": 23013, "shredding</w>": 45534, "documentation</w>": 31560, "ðŁ¤ĵ</w>": 18928, "healey</w>": 38985, "homicide</w>": 21520, "alman": 29394, "suggesti": 15033, "kop</w>": 38999, "stray</w>": 15712, "imagine": 35752, "brew": 5048, "alexis</w>": 14243, "beirut</w>": 22352, "slovakia</w>": 25994, "achim</w>": 42335, "eyeing</w>": 34916, "old</w>": 896, "musicals</w>": 36974, "olulu</w>": 27645, "entrepre": 4583, "freaky</w>": 31583, "lookin</w>": 11254, "swamp</w>": 16595, "dominic": 39007, "overwatch</w>": 18124, "fulfillment</w>": 45573, "facep": 45285, "varied</w>": 32334, "indu": 2298, "gumb": 40147, "ðŁĶ¹</w>": 19995, "hofficial</w>": 41949, "drop": 16407, "embro": 12550, "rescues</w>": 32439, "thelove": 40668, "poa</w>": 43912, "neu": 3855, "stoke": 31338, "actorslife</w>": 25117, "mists</w>": 28636, "spinning</w>": 13987, "clif": 13182, "complexes</w>": 47870, "ayles": 44706, "madurai</w>": 49159, "born</w>": 2683, "furn": 21348, "squares</w>": 26972, "mocha</w>": 28425, "aspen": 35695, "lif": 16456, "basti": 8559, "vault</w>": 15240, "bases</w>": 20496, "humble</w>": 10889, "choice": 23857, "tanker</w>": 25020, "ebony</w>": 30651, "progressives</w>": 41709, "stunning</w>": 3769, "famed</w>": 23302, "oficial</w>": 18061, "bagh": 21659, "stry</w>": 2245, "rda</w>": 45755, "gya</w>": 43214, "combs</w>": 30694, "stoked</w>": 13160, "pict</w>": 18778, "nafta</w>": 43123, "relocated</w>": 46791, "millwall</w>": 35902, "jury</w>": 12931, "kwang</w>": 40260, "lighter</w>": 14102, "ptsd</w>": 23973, "angel": 5029, "mason</w>": 9699, "intrac": 46195, "keke</w>": 39195, "jona": 6629, "peu": 21411, "its": 7140, "followart</w>": 40957, "napa</w>": 20545, "E</w>": 292, "avon</w>": 17348, "narcissi": 35442, "Ã©e</w>": 13489, "borough</w>": 6203, "caval": 24537, "lewan": 48349, "maximize</w>": 28673, "identifying</w>": 23589, "jee": 29250, "sobri": 49308, "vide": 1334, "orl</w>": 39465, "daun": 29470, "haiti</w>": 17368, "vering</w>": 4630, "bright</w>": 4852, "worthwhile</w>": 36295, "neymar</w>": 21878, "intan": 47695, "elisa</w>": 44051, "cc</w>": 2021, "amher": 32311, "teenagers</w>": 25989, "combine</w>": 12919, "production</w>": 4146, "infusion</w>": 43464, "macmillan": 36364, "riviera</w>": 25851, "ww": 3181, "barun": 38278, "deandre</w>": 43635, "bj</w>": 18229, "sae": 38633, "muir</w>": 24745, "kpop</w>": 15859, "ewing</w>": 38873, "broadcasting</w>": 14403, "tur": 985, "irah</w>": 35724, "bottling</w>": 42006, "ðŁİħ": 17685, "jonny</w>": 21895, "thanksgiving": 45732, "shakti": 48593, "al": 526, "attributed</w>": 37520, "friends</w>": 1574, "stretched</w>": 29393, "macfar": 45374, "enthr": 36202, "nay": 11704, "emergency": 44038, "tation</w>": 5280, "gggg</w>": 33513, "selective</w>": 28686, "printer</w>": 14521, "glo": 1721, "acle</w>": 6504, "endi</w>": 31359, "dayweekend</w>": 44526, "concepcion</w>": 47035, "krispy</w>": 49292, "intersection</w>": 19210, "etary</w>": 13074, "denim</w>": 13606, "ecr</w>": 48572, "alou": 43180, "savor</w>": 48071, "pinst": 41173, "growing": 28429, "welcometo": 47511, "grant": 18682, "microbiology</w>": 35348, "appreciates</w>": 36573, "mercur": 11471, "andi</w>": 14354, "ras</w>": 8224, "plea</w>": 21956, "indo</w>": 18297, "debun": 33123, "gnocchi</w>": 48299, "yesterdays</w>": 36238, "ãħĭãħĭãħĭãħĭ": 39362, "flame</w>": 13484, "valiant</w>": 33804, "zeit": 37898, "sparkle</w>": 18287, "solitaire</w>": 47257, "swim</w>": 7681, "mirage</w>": 28679, "ðŁĺĶ": 19532, "documented</w>": 22310, "ento</w>": 8762, "noticias</w>": 47759, "bingham</w>": 47296, "ipswich</w>": 24494, "ffing</w>": 16592, "cis</w>": 23513, "nba</w>": 5139, "hers</w>": 25359, "tford</w>": 22493, "angp</w>": 19992, "fficient</w>": 20424, "nasheed</w>": 49176, "boxes</w>": 8350, "daffodils</w>": 44769, "phol</w>": 48140, "paleo</w>": 22198, "agas": 20430, "acupuncture</w>": 40043, "ðŁİŁ": 19248, "strips</w>": 19000, "ðŁĻĥ</w>": 15652, "bram</w>": 39456, "demons</w>": 18388, "washingtonpost</w>": 28426, "aron</w>": 28926, "etienne</w>": 46118, "tonga</w>": 37882, "mediterranean</w>": 15327, "gatherings</w>": 48096, "pru": 12961, "shim": 11986, "inem</w>": 48876, "ëĿ": 44317, "glo</w>": 30474, "...#</w>": 8195, "hydrau": 26017, "generated</w>": 19450, "Ø²": 36169, "apolo": 31094, "lian</w>": 18058, "buns</w>": 22235, "stinky</w>": 44957, "staytuned</w>": 39285, "illnesses</w>": 33861, "orioles</w>": 21430, "league</w>": 2313, "futurist</w>": 48086, "mcnam": 32682, "harmon": 10828, "ðŁİĤ</w>": 10392, "nose": 24192, "lege</w>": 8065, "à¸Ļ": 17474, "pree</w>": 47026, "âĢĶ@</w>": 28470, "elephant</w>": 10299, "sworn</w>": 21130, "prepaid</w>": 42934, "sweating</w>": 33215, "brt</w>": 46936, "tast": 10839, "marist</w>": 48223, "ripper</w>": 35347, "pate</w>": 42098, "scenic</w>": 15394, "sconf</w>": 39704, "shri": 8838, "phelps</w>": 27128, "hag</w>": 43207, "roe</w>": 9996, "ged</w>": 3480, "anil</w>": 34619, "weasel</w>": 44308, "shut": 8702, "saf</w>": 25760, "instapic</w>": 34378, "]": 60, "zoo</w>": 7147, "proble": 2719, "reigns</w>": 21217, "many</w>": 1346, "come</w>": 891, "itary</w>": 17604, "possessions</w>": 40588, "alay</w>": 36450, "bigger</w>": 6806, "lewisham</w>": 47633, "happyfriday</w>": 33340, "supple": 31431, "swi": 3881, "gradual</w>": 45210, "amic</w>": 21383, "kjv</w>": 37387, "relaxed</w>": 18999, "baron</w>": 19349, "beginners</w>": 21930, "buen": 15640, "candle</w>": 12674, "lw</w>": 35115, ":))</w>": 10164, "greatly</w>": 13978, "clinicians</w>": 45866, "ladygaga</w>": 21232, "decre": 12284, "shirt</w>": 2523, "twenty</w>": 13016, "ronnie": 45257, "mucha</w>": 42191, "tol": 4678, "bute</w>": 39240, "longe": 25793, "ukrunchat</w>": 34481, "bch</w>": 36684, "bridget</w>": 27073, "ahora</w>": 43113, "appliances</w>": 22134, "exclu": 3114, "Ó</w>": 399, "told</w>": 3527, "foundations</w>": 25219, "preparations</w>": 19135, "prophetic</w>": 47476, "geom": 46135, "seul": 48975, "bsu</w>": 46385, "riba</w>": 44992, "myspace</w>": 41382, "cte</w>": 31410, "alchemy</w>": 39501, "ived</w>": 15654, "grasso</w>": 34808, "heist</w>": 31035, "plan": 1740, "clans</w>": 38279, "puerto</w>": 12289, "dant": 48097, "sai": 16048, "mazz": 29439, "newbie</w>": 45427, "undertale</w>": 48283, "pmi</w>": 41206, "kate</w>": 6699, "regulatory</w>": 17717, "alvin</w>": 27023, "geopol": 39758, "discount</w>": 7638, "andy": 9447, "reporters</w>": 18454, "grille</w>": 34748, "processor</w>": 22838, "shelf</w>": 10955, "brianna</w>": 32308, "quins</w>": 39701, "pelo": 40192, "suitcase</w>": 27792, "tie</w>": 3422, "skell</w>": 40801, "howard": 25447, "seer</w>": 32486, "virgin</w>": 12103, "simo</w>": 37171, "keepers</w>": 16130, "donating</w>": 12621, "preds</w>": 40125, "maze</w>": 21988, "liveon": 22815, "tamil": 23046, "leicestershire</w>": 45358, "radios</w>": 43669, "adverse</w>": 30348, "seasonal</w>": 14215, "headed</w>": 6153, "evic": 21336, "maas": 43332, "epidemic</w>": 21522, "lipse</w>": 10351, "consecu": 12084, "ðŁ¦Ħ</w>": 37659, "itel</w>": 44638, "belgium</w>": 10239, "hiker</w>": 40947, "liqu": 6310, "tsal</w>": 20438, "command</w>": 11350, "quote": 15446, "armad": 37897, "winters</w>": 21587, "zanzi": 47835, "caled": 28421, "capitalism</w>": 20068, "recess</w>": 38182, "novel</w>": 6080, "togo</w>": 26729, "discar": 40532, "nbaplayoffs</w>": 43860, "naj": 30985, "acu</w>": 48475, "jenner</w>": 14260, "aji</w>": 21153, "humor</w>": 11186, "palestinians</w>": 21874, "armchair</w>": 45757, "octo": 31032, "alternatives</w>": 25041, "interviews</w>": 9910, "claudi": 39439, "pais": 16878, "stance</w>": 3542, "ap</w>": 2728, "engag": 6793, "âĿ¤ï¸ıâĿ¤ï¸ıâĿ¤ï¸ıâĿ¤ï¸ı": 39167, "ace": 2675, "hdd</w>": 40508, "'ll</w>": 1342, "hardest</w>": 15258, "offline</w>": 22724, "sfgiants</w>": 20923, "gander</w>": 44508, "utsa</w>": 37528, "wechat</w>": 46124, "ev</w>": 10133, "clarity</w>": 21323, "mably</w>": 40082, "ðŁĵĨ</w>": 23471, "vaz": 38142, "gah</w>": 27750, "D</w>": 291, "fit</w>": 2478, "hari": 25472, "fed</w>": 7035, "logie</w>": 33445, "Ä": 128, "kirk": 10639, "heavenly</w>": 19117, "akaif</w>": 45736, "playoffs</w>": 9548, "maris": 21512, "ded</w>": 1241, "mous</w>": 17425, "ticketing</w>": 44432, "hta</w>": 49384, "empire": 26212, "centro</w>": 37178, "mins</w>": 6196, "morally</w>": 42519, "artsy</w>": 31588, "gic</w>": 2570, "clone</w>": 22854, "pari</w>": 27979, "lag</w>": 20394, "volcanoes</w>": 38055, "oli</w>": 8810, "hygiene</w>": 19591, "ðŁĴ¨": 27408, "galley</w>": 48917, "sisters</w>": 6404, "nage</w>": 41219, "lot": 5132, "stry": 17325, "wimbledon</w>": 12229, "references</w>": 24009, "wedo</w>": 43432, "âľĭ": 39383, "joshu": 9112, "ague</w>": 2095, "mains</w>": 33656, "amigo</w>": 44991, "ðŁĲ¾</w>": 11317, "alge": 24336, "javed</w>": 42268, "key</w>": 1458, "cactus</w>": 19794, "pontiac</w>": 25373, "weh": 48458, "ðŁįĵ": 44739, "glar": 48535, "unisex</w>": 27609, "upthe": 31510, "ridin</w>": 47869, "alistic</w>": 22302, "terracotta</w>": 45123, "priest": 38756, "clicked</w>": 29015, "lessons</w>": 7199, "dna</w>": 8790, "esta</w>": 10135, "nigerians</w>": 25358, "broom</w>": 28008, "concession</w>": 38117, "battleship</w>": 35165, "leverage</w>": 24030, "nan</w>": 7750, "pen": 1501, "rear</w>": 10223, "wagner</w>": 18081, "curi": 12640, "glacier</w>": 19282, "bere": 17458, "cap": 1289, "thenorth</w>": 34338, "lose": 43318, "offer": 20607, "erc": 5360, "help</w>": 1318, "ford": 3751, "cari</w>": 37273, "frees": 27455, "opal</w>": 28982, "ium</w>": 10762, "un</w>": 2271, "compassionate</w>": 30193, "harmony</w>": 10785, "lesh</w>": 32282, "female</w>": 3970, "frampton</w>": 41733, "shouted</w>": 44397, "sowe": 36130, "ishable</w>": 37949, "oj": 30986, "advantaged</w>": 38361, "!!!</w>": 995, "^)</w>": 30720, "bryan</w>": 10412, "unit</w>": 5695, "hermo": 40967, "requires</w>": 13396, "intel": 11778, "mnt</w>": 21477, "thepeople</w>": 33597, "pale": 4768, "topical</w>": 37464, "ðŁıĢ": 13708, "anews</w>": 20919, "tailor</w>": 29870, "browning</w>": 32241, "tubular</w>": 48786, "abor": 8416, "landia</w>": 41384, "th</w>": 640, "nc": 5021, "cws</w>": 45186, "duplex</w>": 41186, "atc</w>": 28383, "julie": 22534, "anni</w>": 13728, "prelimin": 19990, "extra": 6416, "putt</w>": 30279, "node</w>": 24871, "irresponsible</w>": 44714, "staying</w>": 8993, "eeee": 11696, "pitts": 9531, "pres": 1385, "pm": 13699, "permitted</w>": 44380, "beef": 21703, "mv": 10580, "joey": 16281, "art": 1486, "hotness</w>": 39803, "embraces</w>": 38404, "?:</w>": 21067, "ribb": 10081, "atics</w>": 15666, "gcse</w>": 28763, "mash": 12317, "omi</w>": 10341, "worn</w>": 9037, "tristan</w>": 25497, "amara</w>": 48522, "franz</w>": 25449, "elevate</w>": 26736, "reh": 21492, "winning</w>": 2577, "dero": 37203, "nering</w>": 20226, "rasc": 30085, "lakshmi</w>": 39682, "tiz</w>": 19376, "heat": 12175, "pike</w>": 14011, "doubling</w>": 36850, "grabbed</w>": 22856, "shawnmendes</w>": 27277, "khi": 39062, "lish": 12658, "dublin</w>": 6145, "accounting</w>": 14805, "tern</w>": 12959, "âĨ": 6059, "outfits</w>": 16366, "orient": 13149, "glowing</w>": 18437, "zid": 30235, "hes</w>": 12784, "jorge": 48761, "trock</w>": 44368, "eds</w>": 1941, "roa": 8313, "birch</w>": 22907, "growler</w>": 47096, "party</w>": 1580, "kathy": 34775, "rut</w>": 39102, "huddersfield</w>": 24220, "blooming": 45175, "âĺº": 5010, "sans</w>": 16982, "campu": 19687, "speakers</w>": 7675, "spidey</w>": 41706, "balt</w>": 24441, "segreg": 49117, "isak": 40619, "touchdown</w>": 18664, "trades</w>": 18519, "ðŁĴ¯</w>": 7018, "ademy</w>": 49123, "inspire</w>": 8583, "platforms</w>": 13551, "ðŁĳ½</w>": 26257, "rfid</w>": 40204, "youre": 28344, "bonded</w>": 37390, "medical</w>": 4116, "tweeter</w>": 32876, "physicist</w>": 29052, "mikey": 34934, "dod</w>": 30187, "proportion</w>": 35775, "rently</w>": 2615, "viii</w>": 20414, "giveaway</w>": 5310, "lamp": 26700, "_</w>": 318, "katrin": 31282, "shat": 12169, "together</w>": 1952, "epis": 24616, "fried</w>": 7310, "texture</w>": 16505, "wex": 17234, "spill": 43933, "vin": 1379, "hilary": 45898, "willam": 43276, "gette</w>": 29800, "friendship": 42674, "sentiments</w>": 47450, "mim</w>": 39379, "yacht</w>": 12859, "esqu": 34616, "avengers": 39413, "ðŁ¤": 1793, "unusual</w>": 12613, "tsn": 44921, "mesmerizing</w>": 35637, "scroo": 42263, "doug": 20271, "ruth</w>": 12029, "partic": 2871, "âľĬðŁı½</w>": 48547, "lak": 12890, "logi": 3177, "anon</w>": 13667, "smen</w>": 15961, "kaz</w>": 39622, "oung": 35875, "¦Ī</w>": 47615, "drain</w>": 19467, "aqu": 4458, "prolon": 35379, "dunk</w>": 17222, "ophel": 45017, "vil</w>": 3000, "fine": 12042, "inductee</w>": 39558, "shawn</w>": 10970, "/</w>": 270, "gic": 27900, "heartbreak</w>": 29281, "simpler</w>": 35489, "carole</w>": 31955, "mathew</w>": 36333, "lexa</w>": 48259, "devgn</w>": 29871, "(ðŁĵ·:</w>": 34610, "goducks</w>": 35889, "veryday</w>": 37944, "wiggins</w>": 32329, "phan": 8731, "balu": 38093, "pair": 19848, "appe</w>": 45949, "kaye</w>": 33003, "arizon": 28936, "unhappy</w>": 26528, "afridi</w>": 37651, "eer</w>": 31846, "aur</w>": 17282, "_)</w>": 37393, "literal</w>": 24269, "trench</w>": 23846, "llc</w>": 17161, "bh": 9930, "accordingly</w>": 35535, "kett": 23124, "pets</w>": 7663, "recognize</w>": 10905, "ðŁĳ¯</w>": 20582, "thermal</w>": 13689, "dinners</w>": 33570, "def</w>": 11649, "tyour": 16823, "moa</w>": 33174, "kltu</w>": 25978, "concre": 43658, "cultur": 20780, "brownies</w>": 22312, "metaph": 24189, "salesman</w>": 37633, "bru": 1698, "reshi</w>": 39435, "whos": 41460, "valid</w>": 15126, "voy": 10622, "polar</w>": 12214, "jy": 20979, "jaz</w>": 32874, "gia</w>": 8864, "annex": 42958, "relates</w>": 36064, "thorn": 12957, "shri</w>": 11424, "ontology</w>": 37364, "inducted</w>": 20596, "tissue</w>": 15368, "interim</w>": 19509, "nationwide</w>": 13795, "bird</w>": 3329, "fficial</w>": 6463, "uy": 31929, "posters</w>": 9673, "det</w>": 15366, "sparky</w>": 47198, "erotic</w>": 30708, "yeon</w>": 16602, "revue</w>": 43428, "crusher</w>": 44923, "slumber</w>": 44295, "ennedy</w>": 46266, "attracting</w>": 31909, "involves</w>": 22652, "minal</w>": 40222, "lynne</w>": 26900, "wood</w>": 1704, "fying</w>": 5294, "mountain</w>": 3965, "gritty</w>": 33704, "curry": 49285, "hac": 20343, "jama</w>": 35366, "customiz": 41793, "tunes</w>": 10810, "rowing</w>": 12807, "non": 4282, "ebook</w>": 13122, "guiding</w>": 22759, "melting</w>": 19247, "junior</w>": 5027, "notification</w>": 22512, "hc</w>": 7821, "vis</w>": 5337, "tpp</w>": 29411, "throwback</w>": 5058, "lew</w>": 25329, "rafa": 14352, "stud</w>": 13319, "exhaust</w>": 21812, "surprisingly</w>": 17367, "walnut</w>": 16310, "carter": 27330, "caine</w>": 16799, "sya</w>": 35017, "rewards</w>": 15235, "oko": 26892, "wku</w>": 43377, "edad</w>": 44724, "events</w>": 3667, ":'</w>": 23851, "tonne</w>": 42450, "coc": 23036, "rags</w>": 47838, "jackson</w>": 4363, "awan</w>": 20420, "craze</w>": 30637, "cartri": 47084, "factual</w>": 45471, "quin</w>": 17167, "ðŁĲĿ</w>": 20111, "mlkday</w>": 39905, "meetthe": 27575, "be": 571, "seley</w>": 30556, "bonfire</w>": 23151, "guam</w>": 37325, "censor": 24230, "horticulture</w>": 39998, "tamar": 22901, "avut</w>": 44472, "declined</w>": 28911, "aux</w>": 8909, "undocumented</w>": 35414, "plex": 23765, "massacre</w>": 14696, "vish</w>": 29124, "lds</w>": 31235, "ruff</w>": 30304, "signals</w>": 17150, "wts</w>": 32159, "mco</w>": 33723, "ðŁĺ»ðŁĺ»": 34414, "slu": 7224, "angor</w>": 41740, "oregon": 21759, "sicily</w>": 23179, "ę</w>": 469, "demi</w>": 14480, "layo": 21738, "ðŁĺ¼</w>": 44245, "sperm</w>": 35781, "personality</w>": 10386, "fom": 34540, "seys</w>": 15081, "junior": 21167, "laid</w>": 11160, "sura</w>": 49125, "proxim": 31436, "manian</w>": 40077, "burglar</w>": 43365, "alma": 32933, "c</w>": 322, "advocate</w>": 12044, "mbe</w>": 27004, "supere": 46831, "lc</w>": 7225, "darlington</w>": 34565, "hemsworth</w>": 39428, "infl": 7627, "gu</w>": 12916, "dly</w>": 3069, "dyn</w>": 30669, "ord": 26903, "adjustments</w>": 36331, "rag</w>": 20687, "taver": 37776, "gained</w>": 14489, "alma</w>": 18337, "ish": 6844, "surance</w>": 22184, "arios</w>": 25392, "yp": 38370, "flexing</w>": 48483, "baptism</w>": 36765, "woman": 15716, "tranqu": 18912, "lazy</w>": 10753, "pie</w>": 5319, "exe</w>": 48027, "coaches</w>": 6924, "ino</w>": 2691, "usu": 4254, "dders</w>": 24827, "crooks</w>": 44226, "recently</w>": 4482, "luciano</w>": 46365, "po": 628, "lancia</w>": 48698, "manic": 23017, "noble": 29430, "easy</w>": 3176, "compliance</w>": 14658, "reha": 10193, "sthe": 16491, "shore": 14717, "kickboxing</w>": 36041, "sank</w>": 43692, "mined</w>": 48034, "keys</w>": 6355, "ago</w>": 1468, "nuts</w>": 8644, "diary</w>": 10380, "tagne</w>": 47467, "++</w>": 19056, "bed</w>": 2722, "..........</w>": 25526, "migu": 12279, "comprehend</w>": 48230, "pence</w>": 18002, "ue": 16696, "Ðµ": 22176, "spiro": 40085, "konstant": 46583, "nya</w>": 24165, "alove": 46669, "native</w>": 4562, "ohh</w>": 23076, "ðŁĮ·": 32328, "ðŁĺĤðŁĺĤ": 2286, "handel</w>": 40072, "nostalgic</w>": 24468, "bahn</w>": 33452, "palma</w>": 29888, "imer</w>": 21802, "ancient": 31495, "heartland</w>": 31923, "eid</w>": 13979, "tying</w>": 22559, "peep</w>": 16857, "galactic</w>": 25514, "went": 18633, "repeated</w>": 27904, "caer": 28298, "wardrobe</w>": 15020, "flinders</w>": 44647, "partici": 9540, "expects</w>": 24536, "cardinal</w>": 16472, "smiling</w>": 9200, "cull</w>": 42061, "promise</w>": 6745, "suburban</w>": 23570, "connoisse": 46012, "hola</w>": 28724, "ãĥ¼ãĥ": 18584, "plays</w>": 5134, "snacks</w>": 12349, "rele": 1602, "radiant</w>": 25614, "entertainment</w>": 6166, "leum</w>": 21571, "im</w>": 1496, "positions</w>": 12188, "better": 10320, "pfi": 29810, "trent": 45885, "ops</w>": 3054, "utilizing</w>": 40212, "corner": 18509, "bothered</w>": 27997, "honors</w>": 10248, "seriously</w>": 4885, "ssus</w>": 31286, "rants</w>": 34014, "parent</w>": 10183, "norman</w>": 11338, "smokes</w>": 40336, "asthour</w>": 41238, "inappropriate</w>": 26722, "bigolive</w>": 20735, "sinthe": 30737, "fujifilm</w>": 24765, "fabric</w>": 10033, "harvest": 44495, "burge": 20522, "missiles</w>": 27868, "placing</w>": 18531, "gale</w>": 21380, "lasts</w>": 20141, "procurement</w>": 23733, "senew": 49313, "om": 547, "ðŁĺįðŁĺŃ</w>": 39555, "shortfilm</w>": 37204, "guacam": 37477, "ðŁĳīðŁı¼</w>": 27534, "headlines</w>": 14706, "delta": 32250, "diya</w>": 36459, "cism</w>": 24166, "petite</w>": 27213, "mals</w>": 25370, "neal": 33652, "serv": 1297, "christmas": 18174, "mercedes</w>": 10685, "parish": 47328, "pristine</w>": 30618, "essay</w>": 12751, "bant": 23301, "hf</w>": 20603, "mangrove</w>": 47180, "£</w>": 352, "doctor": 7872, "origami</w>": 31832, "volkswag": 14407, "æĹ¥</w>": 37156, "kiddos</w>": 29205, "route</w>": 5261, "brew</w>": 7253, "yofficial</w>": 21818, "comey</w>": 22957, "lagi</w>": 39786, "birken": 40661, "ausv": 35206, "anthro": 10019, "wark</w>": 15164, "fari": 26197, "syrians</w>": 41392, "ura": 29337, "phoe": 22673, "sizes</w>": 10253, "alert</w>": 4662, "fica</w>": 26952, "bber</w>": 7933, "sarmy</w>": 20954, "ret</w>": 10048, "prom</w>": 7944, "ducks</w>": 11202, "laz": 18806, "zum</w>": 35094, "publica</w>": 49007, "huron</w>": 36147, "pig": 12009, "tight": 25763, "screenwriter</w>": 37293, "hitting</w>": 7957, "pamper</w>": 44345, "republicans</w>": 12384, "freshest</w>": 46809, "addy</w>": 24746, "darcy</w>": 32916, "foxx</w>": 32993, "liber": 3425, "tara</w>": 15264, "getoutside</w>": 35644, "comiccon</w>": 18379, "abr": 44932, "scale": 37817, "analyzing</w>": 32107, "latino": 45734, "koff</w>": 47303, "lie</w>": 2538, "dive</w>": 9058, "dial": 18416, "âĻ¡âĻ¡âĻ¡</w>": 36611, "fertilizer</w>": 36786, "emcee</w>": 42038, "perfu": 14214, "waterfall</w>": 16403, "orc</w>": 44305, "overweight</w>": 43465, "natgeo": 33009, "participate</w>": 9433, "slayed</w>": 44870, "âī": 22684, "sachs</w>": 31451, "clari": 15175, "although</w>": 9421, "yql</w>": 46122, "mapoli</w>": 28768, "warped</w>": 32125, "cy": 1470, "ðŁĩ¸ðŁĩª</w>": 39260, "serv</w>": 24571, "unveiling</w>": 20327, "yoon": 30863, "etc</w>": 5353, "exemp": 28602, "fitbit</w>": 33768, "beret</w>": 41658, "wned</w>": 8628, "jonghyun</w>": 29023, "continuous</w>": 17033, "bae": 32834, "bionic</w>": 46201, "twelfth</w>": 44072, "moseley</w>": 47080, "eag": 3743, "manipul": 19237, "nold</w>": 40322, "mess</w>": 8188, "awa": 4820, "ied</w>": 10059, "ðŁĳĬðŁı¼</w>": 30115, "media": 22064, "hard": 3312, "jointly</w>": 37471, "goodwin</w>": 28080, "graeme</w>": 30192, "cougars</w>": 20425, "ðŁĺĿ": 20064, "designers</w>": 12720, "rise": 13641, "keerth": 47500, "archer</w>": 21824, "shout": 7335, "cuddle</w>": 19568, "tbc</w>": 31807, "songwriter</w>": 13034, "bu": 609, "shapes</w>": 15377, "puri": 16910, "kup": 39023, "ud": 6560, "zinc</w>": 27458, "aber</w>": 41867, "reporting</w>": 9218, "boogie</w>": 22639, "kher</w>": 43843, "ernity</w>": 14653, "chick": 3170, "comment</w>": 5761, "hanging</w>": 4850, "kindle": 24704, "jha": 47012, "saddened</w>": 27720, "disney": 6729, "embedded</w>": 22046, "snowdonia</w>": 36088, "controls</w>": 15746, "grapevine</w>": 47619, "danielle</w>": 15292, "podernfamily</w>": 26620, "slam": 14891, "zone</w>": 4442, "à¤®</w>": 26774, "experiments</w>": 21077, "ðŁĻıðŁĻı": 18227, "leh</w>": 29298, "sleeves</w>": 19691, "plush</w>": 18926, "blom": 48996, "remember</w>": 2195, "topoli</w>": 30152, "diplomatic</w>": 23782, "gawx</w>": 43420, "image": 24101, "karl": 20967, "gardner</w>": 18710, "stationed</w>": 47618, "tutor": 10054, "kv</w>": 34249, "granddaughter</w>": 29460, "hectares</w>": 44162, "tenders</w>": 44741, "inflammatory</w>": 26831, "ate": 992, "roger": 13929, "torch": 31921, "collab</w>": 14013, "ì¤": 31153, "kung</w>": 22347, "bermu": 21032, "quot</w>": 47587, "ðŁĮŀ</w>": 12980, "instagood</w>": 23718, "ceremonial</w>": 33281, ":\"": 29498, "campbell": 29094, "diaper</w>": 34382, "lover</w>": 7168, "nieu": 29781, "iting</w>": 1257, "ashamed</w>": 20633, "stik</w>": 42247, "âĢĲ</w>": 34512, "troll</w>": 17103, "saturdays</w>": 18930, "translate</w>": 22655, "medieval</w>": 10789, "ful": 1814, "varanasi</w>": 39364, "att</w>": 7103, "staten</w>": 38263, "austrian</w>": 20638, "halfway</w>": 16736, "hee</w>": 15773, "willow": 33887, "ator</w>": 1962, "forsale</w>": 13303, "conveni": 33278, "cion</w>": 22024, "icecream</w>": 21334, "rooms</w>": 6328, "brandon</w>": 9166, "adu": 16882, "smma</w>": 42370, "amination</w>": 30355, "tical</w>": 4342, "essex</w>": 11623, "bom": 3012, "gypsy</w>": 22354, "redcross</w>": 30659, "dig": 1831, "regal": 31512, "mation</w>": 11701, "surely</w>": 11409, "((": 22944, "iler</w>": 3615, "olga</w>": 34779, "semester</w>": 11905, "forlife</w>": 17624, "mce": 26864, "gender": 22976, "gend": 33247, "pianist</w>": 21048, "trident</w>": 35491, "chicago": 15038, "rein</w>": 45009, "symphonic</w>": 42639, "m": 76, "wi": 820, "paint</w>": 5185, "Ð¾": 13506, "posure</w>": 35539, "lisse</w>": 49309, "yah": 16170, "programs</w>": 7345, "united": 10898, "springwatch</w>": 29239, "tofficial</w>": 47953, "mma": 34140, "âĢ¦": 7095, "prohib": 45040, "ckey</w>": 3657, "shome</w>": 42701, ":\"</w>": 12089, "synago": 30945, "alici": 31630, "packard</w>": 46421, "âı³</w>": 47617, ".!!</w>": 37805, "texan</w>": 38386, "barÃ§a</w>": 32788, "begin</w>": 4947, "onthe": 12241, "ðŁĳįðŁĳį</w>": 18997, "heritage</w>": 5455, "ðŁ¥°": 29246, "castell": 31792, "Ľ": 249, "liken": 36084, "tug": 47032, "vigo</w>": 44097, "insist</w>": 35504, "osa</w>": 17237, "toor": 42590, "image</w>": 2867, "çµ": 37810, "of</w>": 539, "gibbons</w>": 31974, "¨": 101, "chai</w>": 18919, "craic</w>": 46962, "bp</w>": 11558, "fh</w>": 21010, "olive": 22486, "mineral</w>": 17692, "lows</w>": 4406, "kre": 8362, "harvick</w>": 46983, "killin</w>": 25903, "heidi</w>": 23867, "limb": 27061, "coo</w>": 21691, "expands</w>": 22223, "xu": 42063, "mcal": 28663, "hoff</w>": 22751, "sui</w>": 24972, "campaigns</w>": 15669, "aaah</w>": 35856, "riga</w>": 36626, "resident</w>": 9016, "avo</w>": 32400, "weiner</w>": 38822, "click</w>": 3585, "filling</w>": 9736, "bry": 6587, "doo": 4543, "kruger</w>": 32948, "dale</w>": 4677, "delgado</w>": 49182, "kamp</w>": 29522, "microsoft</w>": 7254, "azad</w>": 37838, "brings</w>": 5138, "clip</w>": 9289, "halloween": 28537, "ranger": 31472, "silve": 37697, "divergence</w>": 48735, "mojo</w>": 25204, "ðŁİ§": 31254, "commun": 1515, "shares</w>": 4974, "sz</w>": 15879, "nickel</w>": 22034, "emory</w>": 44274, "orleans</w>": 11127, "ymouth</w>": 36429, "umm": 26129, "ings</w>": 895, "tripping</w>": 35229, "ited</w>": 1108, "ðŁĻĪ</w>": 9516, "healthy</w>": 3782, "bins</w>": 26934, "livin</w>": 28061, "uscg</w>": 43932, "sand</w>": 5094, "agan</w>": 9178, "ement</w>": 2057, "invented</w>": 14100, "garda</w>": 31906, "nil</w>": 35030, "ssed</w>": 1804, "strings</w>": 15699, "gospel</w>": 11313, "pretend</w>": 18111, "upwards</w>": 34915, "sements</w>": 31449, "kell": 16082, "laus": 38895, "outreach</w>": 15297, "dreamers</w>": 27194, "urbanart</w>": 40834, "hardrock</w>": 40739, "identities</w>": 34292, "silly</w>": 11883, "parks</w>": 6873, "calming</w>": 30690, "sns</w>": 36343, "criticize</w>": 46081, "thug</w>": 18137, "monica</w>": 13540, "kalb</w>": 34483, "g": 70, "magh": 45555, "oka</w>": 19092, "governor</w>": 6630, "w": 86, "carriage": 47885, "helen": 17576, "carroll": 41911, "grease</w>": 24132, "aha": 12082, "jf</w>": 33718, "ryan</w>": 4053, "joyride</w>": 46949, "maine": 18639, "raheem</w>": 43317, "oooo</w>": 13643, "goddamn</w>": 28495, "alee</w>": 24515, "kx": 28190, "entennial</w>": 43088, "marlborough</w>": 43515, "dayofthe": 38043, "noch</w>": 38672, "relics</w>": 43208, "bernard</w>": 14579, "bounds</w>": 37469, "horri": 8656, "self": 10139, "kerry</w>": 13097, "rotc</w>": 32252, "jeet": 45542, "servers</w>": 22262, "ren</w>": 2596, "ÙĬ</w>": 23853, "âĺºï¸ı</w>": 7779, "baptized</w>": 45400, "korn</w>": 31492, "ccg</w>": 37755, "@_</w>": 2692, "reyes</w>": 18255, "mining</w>": 8473, "globe</w>": 9368, "hd</w>": 4414, "qbs</w>": 38188, "''": 46594, "dono": 14840, "mosqu": 15215, "boyz</w>": 16152, "transm": 18861, "wheeling</w>": 34839, "wigan</w>": 23130, "ðŁĺĬðŁĺĬ": 12838, "rosÃ©</w>": 28006, "male": 11326, "sirius</w>": 34999, "ming</w>": 2107, "title</w>": 3644, "ezra</w>": 27552, "sly": 28145, "pig</w>": 9619, "lipstick</w>": 15618, "à¸«": 33064, "paralym": 18727, "Ø±ÙĬ": 43273, "ireland</w>": 4157, "asean</w>": 24472, "hamlet</w>": 27722, "aeri": 27685, "swith": 17299, "jumps</w>": 18911, "adrian</w>": 13163, "councill": 15732, "raff": 34900, "semis</w>": 24013, "procreate</w>": 39336, "underwater</w>": 14760, "soups</w>": 45052, "alham": 23352, "ingnow</w>": 34766, "gat": 5314, "sser</w>": 20445, "stev": 11640, "shealth": 41743, "schar": 15085, "yuck</w>": 48282, "downs</w>": 10706, "md</w>": 4732, "trains</w>": 9541, "ðŁĺĦ": 12141, "wart</w>": 7346, "iiot</w>": 30704, "feature": 30413, "tanto</w>": 45685, "flam": 10559, "flashes</w>": 31259, "podcast": 39654, "capita</w>": 41833, "ulo</w>": 36738, "....</w>": 1390, "mic": 1213, "gag": 14121, "ipod</w>": 17889, "dent</w>": 1258, "ikon": 38543, "somewhere</w>": 8119, "attitudes</w>": 27611, "dmitry</w>": 48326, "tups</w>": 44855, "road": 4370, "presses</w>": 33748, "theworld": 44988, "ruin</w>": 16256, "wexford</w>": 29876, "ais": 7616, "ghty</w>": 5866, "musichistory</w>": 37890, "mori</w>": 29514, "cub": 16938, "oto": 23946, "finest</w>": 7707, "vements</w>": 11104, "procedural</w>": 48177, "run": 1639, "atable</w>": 23909, "silver": 7525, "ß": 155, "murdering</w>": 36055, "ferred</w>": 10432, "hosa</w>": 44618, "fball</w>": 29663, "single</w>": 2688, "ait": 25613, "locom": 22798, "dency</w>": 11659, "mixers</w>": 39175, "directioners</w>": 22055, "modelling</w>": 19946, "opla": 36270, "stennis</w>": 45636, "strengthened</w>": 47131, "enya</w>": 36509, "mos</w>": 9593, "philadel": 9428, "accounts</w>": 9974, "harman</w>": 42434, "domestic": 28189, "fonda</w>": 44609, "alizes</w>": 26181, "countryside</w>": 16303, "rhapsody</w>": 35774, "selangor</w>": 44402, "nam": 1410, "niger": 4524, "ceo</w>": 3559, "bord</w>": 36891, "david</w>": 2259, "header</w>": 11077, "arm</w>": 4793, "inline</w>": 45004, "seq</w>": 44379, "electronic</w>": 9273, "insecurity</w>": 36964, "foodie</w>": 9847, "aran": 20839, "peep": 25425, "ning": 6050, "accenture</w>": 41853, "pandor": 30250, "gira": 16949, "conferencing</w>": 47320, "ahead</w>": 3158, "substance</w>": 19309, "recreated</w>": 40888, "liz</w>": 12242, "ssd</w>": 23107, "decentr": 28960, "proposed</w>": 10615, "wallart</w>": 36223, "-></w>": 5081, "evan</w>": 12847, "beak</w>": 36498, ">:</w>": 36196, "wednesdays</w>": 24943, "ðŁİ«</w>": 30331, "pugh</w>": 41302, "chatur": 33839, "icus</w>": 31459, "posture</w>": 29681, "flexi": 10032, "bene</w>": 47151, "renal</w>": 36096, "Å": 129, "armin": 45481, "zeb</w>": 46518, "highlighting</w>": 17344, "breeds</w>": 29021, "olf</w>": 16346, "acio</w>": 26202, "ramesh</w>": 40186, "repairs</w>": 16297, "pper": 6719, "vivi": 11625, "racing": 23306, "yee": 18114, "atu": 15191, "missile</w>": 14411, "ruger</w>": 48655, "cooling</w>": 15291, "aspirations</w>": 36127, "paralleled</w>": 42520, "noto": 29878, "playtime</w>": 43037, "grape": 19131, "exercises</w>": 19669, "unlike</w>": 16694, "vent": 4373, "enge": 26279, "fal": 2778, "px</w>": 10262, "ety": 25920, "lloyd": 33339, "mÃ¼": 28142, "bromley</w>": 35715, "agn": 36474, "chery</w>": 38478, "borders</w>": 13900, "ðŁ¤Ļ</w>": 39101, "âı°</w>": 12714, "sweethe": 16316, "sponsorship</w>": 17632, "agon</w>": 14901, "stephenking</w>": 46361, "advent": 3071, "recep": 17450, "us": 904, "publishes</w>": 35633, "blazers</w>": 16984, "kii</w>": 39340, "juven": 12944, "remixes</w>": 31011, "considers</w>": 24691, "lifting</w>": 10857, "mpo</w>": 33674, "blending</w>": 34307, "sth</w>": 34004, "frontier</w>": 18253, "fala": 47120, "georg</w>": 43126, "cchini</w>": 28467, "glam": 8738, "elderly</w>": 15455, "pickups</w>": 33383, "assassins</w>": 34918, "slowing</w>": 29839, "jog": 37967, "brilliantly</w>": 26803, "und</w>": 9732, "cush": 43731, "bangle</w>": 37634, "esp": 3849, "colossus</w>": 34022, "african": 17471, "check</w>": 1217, "redon": 48506, "history</w>": 1695, "needle</w>": 19886, "yeah": 29405, "optimal</w>": 25235, "combos</w>": 48117, "kens</w>": 29765, "schoo": 20721, "biotic</w>": 33773, "moved</w>": 6997, "expanse</w>": 46886, "mods</w>": 23843, "tw": 966, "cumb": 10858, "wong</w>": 17876, "warner</w>": 13402, "canvass</w>": 40054, "promote": 47384, "mormon</w>": 27715, "fam</w>": 5128, "entrata</w>": 27304, "protestant</w>": 46945, "haan</w>": 36284, "slo</w>": 36083, "ðŁĺ±ðŁĺ±</w>": 40767, "ðŁĴ©": 48621, "flin": 24730, "subli": 16350, "carbon</w>": 7549, "hae": 30723, "strom</w>": 14707, "artin</w>": 48540, "anglesey</w>": 31850, "raiders</w>": 11817, "greenpeace</w>": 44755, "baff": 35693, "jarre": 23385, "villanova</w>": 44025, "ordered</w>": 8335, "forecasts</w>": 27696, "meria</w>": 48433, "petroleum</w>": 22063, "complain</w>": 19292, "hunter": 16531, "tire": 29128, "plastic": 15645, "arns</w>": 46692, "touched</w>": 13190, "designated</w>": 24119, "opec</w>": 33138, "ffxiv</w>": 26569, "afro": 16267, "jackson": 12321, "mould</w>": 36743, ",\"</w>": 3823, "nextgen</w>": 41933, "fau</w>": 31381, "liffe</w>": 38942, "hibis": 36226, "involvement</w>": 19502, "evacuation</w>": 27353, "secco</w>": 27394, "gur": 3218, "randolph</w>": 29899, "logia</w>": 48031, "kayo</w>": 37021, "ethnic": 30522, "palae": 43379, "newmexico</w>": 35238, "imsa</w>": 37262, "ssh</w>": 48866, "earbuds</w>": 47807, "melton</w>": 46062, "outstanding</w>": 6387, "descent</w>": 19375, "mason": 17424, "ç¥": 26369, "sidd": 19842, "taxpayer</w>": 30978, "shazam</w>": 29063, "bless</w>": 5387, "2": 17, "mane</w>": 16044, "memoir</w>": 20532, "peruvian</w>": 30822, "poured</w>": 26621, "jw</w>": 24215, "myself</w>": 3245, "cheng": 32512, "img</w>": 24157, "katyperry</w>": 28309, "cumulative</w>": 47610, "jayanti</w>": 37732, "downward</w>": 37430, "illo</w>": 7588, "flamenco</w>": 37362, "schultz</w>": 30308, "gilli": 13695, "disupdates</w>": 45667, "ili": 2076, "ycle</w>": 38089, "ãģĨ": 44235, "miro": 34851, "social</w>": 2346, "bst</w>": 19698, "blah</w>": 29212, "smalls</w>": 41696, "erina</w>": 25176, "cotswolds</w>": 35546, "miy": 25695, "probably</w>": 4047, "ub": 18430, "stone</w>": 2441, "monk": 30557, "chutney</w>": 36261, "describing</w>": 24239, "ather</w>": 1817, "lass": 24203, "ipment</w>": 37824, "devan": 37072, "radial</w>": 42028, "lucky</w>": 4133, "blen": 25651, "gemini</w>": 23086, "cm</w>": 3741, "neighbor</w>": 14485, "jill</w>": 15254, "guidelines</w>": 16591, "tj": 18890, "avocados</w>": 48911, "schel</w>": 38569, "roundup</w>": 17503, "organised</w>": 13191, "supre": 5875, "à¤¾": 37973, "yorkshire": 27007, "fancafe</w>": 45080, "provost</w>": 36627, "alife</w>": 21100, "board": 10419, "teens</w>": 12375, "lick": 29197, "gasoline</w>": 27691, "olini</w>": 36040, "lod": 45650, "ðŁĵį</w>": 8903, "root": 25930, "iam</w>": 11415, "gateshead</w>": 40051, "crawl</w>": 20106, "modified</w>": 17964, "everybody</w>": 5901, "vincent": 29069, "found": 3454, "lections</w>": 30995, "sket": 3744, "wor": 641, "refer": 18425, "momsdemand</w>": 33744, "slipper</w>": 39644, "carrying</w>": 9920, "display</w>": 4456, "fpl</w>": 27970, "believein": 24294, "success": 3695, "onair</w>": 29511, "lets": 10448, "mis</w>": 11239, "proud": 11080, "missal</w>": 38337, "dependent</w>": 23280, "infiniti</w>": 34644, "niels</w>": 37154, "potassi": 36889, "ostrich</w>": 47640, "poodle</w>": 34961, "parrish</w>": 43043, "vals</w>": 7431, "souvenir</w>": 24811, "open": 3647, "nws</w>": 30998, "brightest</w>": 26159, "brewer</w>": 20756, "salutes</w>": 32762, "ħï¸ı</w>": 33950, "rites</w>": 36160, "christen": 31956, "warm": 14725, "fis": 7846, "asset": 48463, "rh</w>": 22404, "constitution</w>": 12157, "cartier</w>": 32951, "meatballs</w>": 29233, "canucks</w>": 24321, "shifted</w>": 34429, "nata</w>": 39392, "pembroke": 36702, "rahu": 13129, "persist</w>": 40938, "nau": 5955, "prise</w>": 23343, "videogame</w>": 35097, "chateau</w>": 23520, "macron</w>": 24859, "mitochondri": 42132, "tow</w>": 18653, "ceos</w>": 28332, "fanbase</w>": 36921, "rut": 14973, "acar": 22232, "coles</w>": 30398, "signings</w>": 27731, "eder</w>": 16249, "yeah</w>": 3908, "attractions</w>": 22307, "helicopter</w>": 11956, "aul</w>": 34391, "*</w>": 265, "oldschool": 44384, "eos</w>": 17805, "okc</w>": 18357, "ek</w>": 2092, "tros</w>": 40456, "lambs</w>": 30361, "incomparable</w>": 36027, "mente": 40302, "ito</w>": 4661, "sask</w>": 30416, "faceoff</w>": 42710, "skine</w>": 37300, "truste": 17356, "nwa</w>": 34237, "algorithms</w>": 26039, "greets</w>": 25464, "ophy": 28539, "alright</w>": 10866, "blasts</w>": 23067, "cran": 7761, "ballon</w>": 36469, "uss": 11545, "candy</w>": 6417, "kristi": 26895, "emir</w>": 47613, "vii</w>": 17759, "resear": 6090, "conquering</w>": 43778, "uber": 25896, "gold</w>": 2209, "josÃ©</w>": 27922, "antonio</w>": 7842, "profit</w>": 7909, "politics</w>": 4929, "andri": 37208, "frustrating</w>": 31342, "adukone</w>": 30511, "fairi": 28884, "ultram": 44519, "chopping</w>": 35375, "blossom</w>": 14472, "asli</w>": 44290, "coden": 43914, "thal</w>": 12323, "bengal": 17404, "fingers</w>": 9690, "monty": 43997, "uit</w>": 47584, "abuse</w>": 7678, "attracts</w>": 31024, "thankyou": 18050, "omo": 14478, "ponti": 15527, "flawless</w>": 15531, "torre": 39563, "mathieu</w>": 40417, "flavorful</w>": 49135, "geeks</w>": 20110, "ðŁĶ¬</w>": 44227, "tons</w>": 7555, "intolerance</w>": 37808, "gnment</w>": 25110, "rying</w>": 7838, "hitter</w>": 23538, "mohamed</w>": 18472, "discover</w>": 4834, "linke": 15088, "renting</w>": 37662, "laguna</w>": 23609, "azerbai": 20649, "saving": 28498, "weston</w>": 22771, "boxed</w>": 24190, "dul": 6738, "ðŁĳį": 4686, "doubles</w>": 12539, "dov</w>": 38856, "societies</w>": 25855, "tania</w>": 45369, "dike</w>": 42683, "hammond</w>": 21761, "yemen</w>": 12513, "warfare</w>": 15739, "list</w>": 1998, "dus</w>": 9931, "burgring</w>": 40823, "eventually</w>": 14397, "microbes</w>": 44671, "glow": 30472, "elsewhere</w>": 22906, "serviced</w>": 44687, "gain": 21536, "van</w>": 2451, "retarded</w>": 44111, "foreigners</w>": 38549, "oceans</w>": 16792, "rhubarb</w>": 30213, "nees</w>": 47248, "tuk": 39271, "retention</w>": 26247, "sunderland": 45727, "wolf</w>": 5916, "rai</w>": 9638, "tin": 1310, "workspace</w>": 34470, "ni</w>": 3256, "npc</w>": 33966, "kair": 33027, "pensac": 30925, "breitbart</w>": 37926, "scratched</w>": 48831, "sexism</w>": 32059, "robb</w>": 39673, "ãħĭãħĭ</w>": 42581, "agre": 3180, "verification</w>": 33521, "slap": 48830, "girly</w>": 29605, "blanchett</w>": 49378, "congresswoman</w>": 37317, "fellow</w>": 5242, "condemns</w>": 32092, "landfall</w>": 38465, "syrian</w>": 10041, "prevention</w>": 9500, "wholesale</w>": 18306, "composer</w>": 12104, "pad": 3798, "hanoi</w>": 36134, "long</w>": 1538, "redsox</w>": 19144, "maru</w>": 31838, "emil": 26794, "webdesign</w>": 20470, "carmen</w>": 18834, "seam": 13710, "punt</w>": 32699, "chao</w>": 31815, "valencia</w>": 16559, "streetfood</w>": 44486, "coim": 41528, "expect</w>": 5716, "revolu": 4900, "shil": 14370, "bluetooth</w>": 14052, "strains</w>": 38067, "garci": 44658, "skul": 17561, "sco": 1065, "suffol": 13775, "horizon</w>": 11920, "âľĪ": 10682, "jeet</w>": 30944, "plin</w>": 32335, "siempre</w>": 44030, "mbuhari</w>": 36752, "omination</w>": 42571, "algeria</w>": 25257, "lais</w>": 34923, "enqu": 28417, "racing</w>": 3699, "gardener</w>": 28554, "scran": 41774, "favour": 3111, "danny": 14950, "qualifies</w>": 35820, "healthyeating</w>": 33761, "swamy</w>": 28445, "novak</w>": 26465, "anderson</w>": 6510, "cites</w>": 34490, "mafia</w>": 14890, "nation</w>": 2670, "guillaume</w>": 45394, "shannon": 22842, "onto</w>": 3141, "allied</w>": 20045, "key": 2891, "cardo</w>": 40625, "lang</w>": 8578, "justi": 14700, "germain</w>": 38786, "syour": 21718, "ozzy</w>": 39549, "hoos</w>": 46462, "paint": 7948, ".'\"</w>": 41558, "honoring</w>": 10771, "pne": 30966, "indication</w>": 38539, "harmon</w>": 28729, "imac</w>": 40675, "import": 2336, "perience</w>": 19302, "refined</w>": 26098, "savory</w>": 32992, "anc</w>": 17758, "selfish</w>": 26907, "ðŁĻıðŁı¼</w>": 18952, "noon": 37693, "acon</w>": 11571, "pearl": 21806, "vamo": 46718, "Ý</w>": 409, "buda": 18520, "fans</w>": 1840, "eli": 1018, "agate</w>": 25454, "robots</w>": 13473, "soto</w>": 27947, "caul": 23460, "à¸ļ</w>": 39616, "vampire": 47576, "greco</w>": 39103, "monarchs</w>": 36750, "sung": 16903, "()</w>": 8475, "blacklist</w>": 30295, "arkansas</w>": 12227, "discomfort</w>": 48054, "chhattisgarh</w>": 44246, "organising</w>": 22787, "happyfathersday</w>": 43534, "qing": 46522, "actual</w>": 7488, "gover": 10471, "kyuhyun</w>": 37229, "ghead</w>": 40783, "strikes</w>": 9280, "nn</w>": 12925, "thegood": 28594, "ind</w>": 4655, "ta</w>": 1397, "cation</w>": 21367, "srugby</w>": 40526, "mx": 21947, "atlas</w>": 15775, "agrees</w>": 17854, "terra</w>": 18816, "rectangular</w>": 43321, "ves": 9616, "stis</w>": 45224, "runchat</w>": 25838, "congre": 7947, "muni</w>": 39795, "aaaa</w>": 19336, "sharif</w>": 15501, "buddy": 40948, "glam</w>": 16905, "iot</w>": 6627, "nou": 8751, "snowden</w>": 32154, "leave": 37512, "puree</w>": 45474, "sens</w>": 22837, "aways</w>": 12782, "museumweek</w>": 37996, "encrypted</w>": 48710, "balmain</w>": 45929, "centred</w>": 47925, "forest</w>": 4167, "plum": 26267, "kan": 2532, "samurai</w>": 21739, "theon</w>": 34653, "schan": 31328, "gophers</w>": 31957, "boundary</w>": 21344, "delic": 13366, "sirens</w>": 35907, "wraps</w>": 18236, "neutral</w>": 17011, "forgiven</w>": 44894, "myth": 20322, "smag</w>": 32212, "enza</w>": 25239, "truec": 37583, "croo": 16443, "sar</w>": 9424, "certificates</w>": 25281, "authenticity</w>": 35734, "treehouse</w>": 42387, "ðŁĴĿ</w>": 22002, "firefly</w>": 33997, "sun</w>": 2176, "ashore</w>": 31194, "encourage</w>": 12090, "bullpen</w>": 38081, "mlk</w>": 17941, "yesterday</w>": 1926, "attitude</w>": 10648, "ðŁĺĺâĿ¤ï¸ı</w>": 39150, "hive</w>": 18521, "museo</w>": 36457, "lative</w>": 15719, "crossfit": 47214, "coasts</w>": 42225, "signation</w>": 24347, "shed</w>": 1492, "atically</w>": 13558, "bhm</w>": 38741, "ðŁĺį.</w>": 48579, "pz</w>": 48361, "motive</w>": 36669, "carpenter</w>": 18475, "clip": 39712, "emerald": 46878, "views</w>": 2758, "bhai": 48370, "prequel</w>": 40461, "mt": 4252, "bambi</w>": 46596, "tina</w>": 9257, "noc</w>": 44420, "cambridge</w>": 9334, "kilt</w>": 49319, "psu": 41286, "celery</w>": 30990, "tranquil</w>": 35764, "historia</w>": 46010, "hea": 27150, "cevic": 48369, "fetal</w>": 42031, "ten</w>": 2581, "Ù</w>": 405, "mov</w>": 23950, "tempe</w>": 36723, "teatime</w>": 48948, "pnc</w>": 37148, "sob": 24900, "maya": 45783, "sput": 47521, "lantic": 32601, "nl": 12057, "daniel</w>": 4981, "nat": 1276, "alyss": 29490, "refuge</w>": 17432, "ðŁĮĻ</w>": 23283, "lincol": 6239, "ayama</w>": 41194, "ashtra</w>": 18118, "ding": 7545, "negoti": 10216, "guillau": 41123, "namjoon</w>": 31986, "fronts</w>": 26846, "spaces</w>": 9006, "ãĥ»": 8415, "ethnic</w>": 16344, "kazan</w>": 47641, "anu": 8537, "'.</w>": 4645, "policies</w>": 10993, "ðŁĳĳðŁĳĳ": 48532, "offended</w>": 30765, "morals</w>": 46223, "citi</w>": 30270, "pland</w>": 24801, "forums</w>": 31518, "atul": 1744, "sumatra</w>": 47346, "yman</w>": 29077, "esch</w>": 41945, "presidente</w>": 47363, "bard</w>": 17514, "marisa</w>": 42938, "ingredient</w>": 19799, "pedal</w>": 19621, "paolo": 48488, "ary": 4617, "mountains</w>": 5873, "professional</w>": 4774, "handbook</w>": 25147, "birth</w>": 5397, "quind": 32339, "reebok</w>": 26734, "zh": 33389, "glend": 38332, "green</w>": 1901, "phoenix": 20615, "plotting</w>": 30751, "incumbent</w>": 38038, "dude</w>": 5710, "thru</w>": 6162, "twee": 1330, "aine</w>": 17634, "afcb</w>": 44276, "fitters</w>": 32364, "girl</w>": 1611, "foundry</w>": 31426, "measures</w>": 11936, "sau</w>": 19455, "ineffe": 47202, "pointers</w>": 36760, "compassion</w>": 14463, "ditions</w>": 4503, "gl": 1849, "yoke</w>": 41969, "racket</w>": 37691, "attorney</w>": 10372, "soap</w>": 11088, "lazio</w>": 33010, "onda</w>": 32643, "ameli": 21599, "ssional</w>": 13727, "oms</w>": 3770, "edmun": 36561, "horn</w>": 9607, "southkorea</w>": 43552, "stm</w>": 28333, "hover</w>": 49016, "shutter</w>": 33902, "esi</w>": 30064, "rigged</w>": 35897, "cinematography</w>": 33802, "intelligent</w>": 14063, "selamat</w>": 37692, "schaft</w>": 41010, "kaur</w>": 30518, "smashes</w>": 45657, "addi</w>": 36378, "ico</w>": 3040, "polishing</w>": 43629, "tonight</w>": 1009, "dsburg</w>": 47237, "gita</w>": 40838, "balkans</w>": 42987, "justice</w>": 3604, "glass": 16305, "rou</w>": 34783, "thin": 2178, "diy</w>": 7845, "kidnapped</w>": 24737, "alo</w>": 6183, "ardi": 23932, "zay": 7102, "initiation</w>": 41009, "cameron": 19634, "acknowledging</w>": 45645, "phra": 12777, "traditionally</w>": 35532, "izer</w>": 23895, "yong": 27960, "rabhu</w>": 25806, "nale</w>": 27198, "onceupon": 28122, "rosse</w>": 11602, "avengers</w>": 12016, "itudes</w>": 20459, "borrowing</w>": 41045, "hipho": 8819, "iwd</w>": 16815, "shon": 19526, "mcfarlane</w>": 47174, "inging</w>": 4066, "adidasoriginals</w>": 48575, "curiosity</w>": 21583, "hikari</w>": 44624, "cullen</w>": 25973, "shells</w>": 19265, "determination</w>": 17410, "sidel": 43557, "sensu": 28157, "hehe</w>": 10658, "universal</w>": 8754, "mika</w>": 25185, "agno": 41540, "saveour": 33390, "maharashtra</w>": 19328, "americans</w>": 6676, "deere</w>": 32901, "jams</w>": 20243, "arum</w>": 48732, "divide</w>": 18842, "mirren</w>": 47600, "baller</w>": 25655, "reboot</w>": 22385, "kian</w>": 25708, "ðŁĩµðŁĩŃ</w>": 42777, "':</w>": 7182, "unmatched</w>": 46054, "neglec": 18827, "toto</w>": 39823, "premieres</w>": 19907, "ct": 3381, "haps</w>": 9114, "bone</w>": 6195, "defines</w>": 28218, "martin</w>": 3690, "assu": 8328, "conceptu": 42745, "sera</w>": 28250, "dull</w>": 19433, "ðŁĳįðŁı¼</w>": 19689, "ro": 532, "aven</w>": 32971, "trending</w>": 6087, "dok": 40547, "bride</w>": 8964, "tored</w>": 38046, "silver</w>": 3467, "raffic</w>": 32928, "bbo</w>": 21892, "defe": 4148, "apor": 21871, "lucha</w>": 38449, "onceuponatime</w>": 33505, "fle</w>": 44964, "spi": 3174, "sigma</w>": 15697, "cortex</w>": 40109, "made</w>": 1105, "vscocam</w>": 34694, "Ĭãģ": 30294, "hel": 919, "ì§Ģ": 28836, "bank</w>": 2723, "fountains</w>": 37411, "microbiome</w>": 35148, "isnt</w>": 19416, "mindfulness</w>": 15707, "tson</w>": 47140, "meanings</w>": 45814, "extrac": 18550, "freeman</w>": 16450, "aat</w>": 35004, "vendor</w>": 21261, "rejoice</w>": 24712, "itup</w>": 35838, "italy</w>": 4052, "atri</w>": 38889, "natal</w>": 28516, "arts</w>": 3812, "stab": 7726, "calum</w>": 16405, "baths</w>": 19442, "bbles</w>": 18093, ".:</w>": 15811, "apt</w>": 17921, "transforms</w>": 30312, "maja</w>": 47498, "certainty</w>": 20054, "proton</w>": 40009, "foraging</w>": 39056, "erson</w>": 6811, "gregation</w>": 20131, "posei": 47270, "presidents</w>": 16726, "calend": 6057, "fanc": 29017, "ghtning</w>": 39740, "irandeal</w>": 46533, "westside</w>": 33762, "nayanthara</w>": 45184, "wouldnt</w>": 41595, "bush": 11191, "convincing</w>": 27742, "ar</w>": 625, "youngest</w>": 12316, "ig</w>": 3072, "pok": 15387, "florida": 34264, "ero</w>": 3732, "elion</w>": 30682, "cre": 798, "spelled</w>": 24339, "ancies</w>": 21647, "reminds</w>": 8303, "celtic</w>": 10523, "brink</w>": 28796, "anemone</w>": 49019, "employee</w>": 9560, "nay</w>": 16182, "telecom</w>": 21057, "âĺĳ</w>": 42300, "fairmont</w>": 41547, "wentz</w>": 39179, "difficulty</w>": 25245, "kalin": 42776, "severe</w>": 6215, "ici</w>": 22189, "bav": 21075, "neutrality</w>": 26511, "stri</w>": 27795, "but": 2201, "bred": 46929, "moun": 2023, "sport</w>": 2364, "photoo": 11106, "yev</w>": 39855, "scribe</w>": 36228, "shouse</w>": 28671, "memorialday</w>": 21598, "aggarwal</w>": 39386, "bhi</w>": 21955, "perce": 24135, "scholarship</w>": 9070, "am": 548, "mention</w>": 6762, "ðŁĶª": 47078, "anem": 41395, "harbour</w>": 10011, "wednesdaywisdom</w>": 11445, "cost</w>": 4713, "bowls</w>": 17787, "reign</w>": 14827, "involved</w>": 5320, "veg": 9048, "reinde": 23810, "livesmatter</w>": 20348, "berg</w>": 3294, "leys</w>": 14834, "screening</w>": 6688, "incentive</w>": 29024, "tp": 23760, "bhp</w>": 29776, "snl</w>": 16011, "invention</w>": 23607, "maria": 41109, "maris</w>": 33093, "prices</w>": 5954, "blends</w>": 28572, "od</w>": 9719, "primavera</w>": 44899, "rolf</w>": 48606, "clubs</w>": 9437, "ovarian</w>": 42913, "wrapping</w>": 15223, "stic</w>": 1561, "nami": 20393, "therland</w>": 25351, "committee</w>": 5636, "irish</w>": 4889, "saf": 2125, "diplomats</w>": 44126, "kli": 31640, "mackin": 26010, "worldo": 41698, "industrial</w>": 7520, "ðŁĺı</w>": 6909, "flexibility</w>": 22547, "alize</w>": 10268, "steadily</w>": 35049, "deity</w>": 42574, "fallout": 49365, "robe</w>": 23116, "crisp</w>": 15145, "yield</w>": 16825, "momento</w>": 30078, "rice": 36362, "tortilla</w>": 32683, "ilove</w>": 32914, "tari</w>": 38012, "kara</w>": 12552, "ransomware</w>": 33815, "raids</w>": 26655, "tastic</w>": 21337, "search": 23129, "modernist</w>": 36773, "dk</w>": 16196, "alongside</w>": 8646, "ted": 4841, "thium</w>": 21804, "parasite</w>": 42460, "tho": 1325, "inquiry</w>": 15865, "impact</w>": 3844, "shenko</w>": 39751, "moil</w>": 30349, "?\"</w>": 3283, "ibooks</w>": 46887, "toni</w>": 17171, "ðŁ¤ĺðŁı½</w>": 49362, "bho": 19721, "ffed</w>": 8448, "sorta</w>": 34700, "rook</w>": 35918, "fuji": 15573, "vaccine</w>": 17493, "income</w>": 8044, "dog</w>": 1929, "amis</w>": 29829, "sarkodie</w>": 42848, "farrakhan</w>": 46293, "urban": 7931, "abh</w>": 33649, "outlaws</w>": 30935, "shadow": 15243, "her</w>": 899, "broadway</w>": 9092, "ajes</w>": 38791, "deposit</w>": 16775, "suk": 24820, "duce</w>": 3660, "filtration</w>": 42036, "noms</w>": 35706, "hounews</w>": 48373, "snooze</w>": 40718, "cal</w>": 6372, "going</w>": 1245, "ferrell</w>": 41112, "conn</w>": 20329, "marg</w>": 44014, "aamaadmiparty</w>": 46406, "budge": 32005, "kÃ¶": 32437, "zil": 25039, "lefto": 17437, "pli</w>": 45797, "ican</w>": 5246, "tight</w>": 9123, "glossy</w>": 29802, "slayer</w>": 21605, "berk": 15633, "gmb</w>": 31799, "nitrogen</w>": 30706, "redbubble</w>": 46137, "pins</w>": 14619, "artif": 8950, "flat</w>": 6313, "infinity</w>": 12895, "measurable</w>": 48010, "amphitheater</w>": 41285, "hilton</w>": 14012, "regeneration</w>": 29257, "cradle</w>": 29384, "testament</w>": 24609, "af": 702, "neighborhood</w>": 9471, "patho": 18534, "atten</w>": 32408, "nephew</w>": 11689, "asdfghj": 42758, "cooper": 7264, "esh": 17119, "!!!!!!!!</w>": 21622, "hort</w>": 19482, "susa</w>": 20546, "aths</w>": 28835, "vul": 6856, "exception</w>": 25018, "braided</w>": 39997, "rollover</w>": 39214, "itz</w>": 7807, "bonnie</w>": 18555, "ician": 40522, "torn": 8572, "boar": 7837, "bluray</w>": 36818, "âĺİ</w>": 45493, "reuben</w>": 40450, "û</w>": 439, "erno</w>": 40812, "zona</w>": 42134, "scrub</w>": 23432, "karo</w>": 45305, "ł": 254, "elements</w>": 10925, "index": 35209, "ones</w>": 1575, "gofundme</w>": 34686, "spionage</w>": 41838, "veal</w>": 36616, "systemic</w>": 33807, "stoday</w>": 22392, "starve</w>": 46957, "caitlin": 47768, "enjoyed</w>": 5045, "men": 1552, "eves</w>": 7323, "shoulder</w>": 8476, "aguil": 27946, "vents</w>": 12833, "directors</w>": 11940, "mery</w>": 40873, "ufc</w>": 6490, "coded</w>": 33703, "meh": 10512, "teness</w>": 18018, "splus</w>": 40866, "grower</w>": 44925, "paranoid</w>": 43029, "acce": 8564, "entren": 46959, "dove</w>": 18281, "riverdale</w>": 28304, "groot</w>": 37708, "declan</w>": 42341, "shinee</w>": 19660, "zw</w>": 42188, "blake": 20229, "py</w>": 7504, "kor</w>": 24175, "brooklyn</w>": 6983, "drip</w>": 24050, "duke</w>": 7732, "postman</w>": 38285, "sef</w>": 27453, "strike": 20774, "histories</w>": 34736, "size</w>": 3235, "battlefront</w>": 42214, "ssions</w>": 4137, "candied</w>": 43982, "harth</w>": 35619, "chus</w>": 36246, "yal</w>": 13418, "mingly</w>": 36909, "gifford</w>": 47850, "ism": 47730, "fand": 19684, "bies</w>": 7867, "ayu</w>": 40769, "panties</w>": 32515, "costs</w>": 7628, "alek</w>": 43310, "circuits</w>": 33260, "force</w>": 2869, "(!)</w>": 30253, "liberty": 23397, "inmates</w>": 28216, "rium</w>": 33884, "babies</w>": 6635, "zig</w>": 21345, "nothing": 28412, "essays</w>": 27328, "jah": 20067, "sains": 24860, "offici": 1401, "follower</w>": 17039, "training</w>": 2199, "gk": 38953, "florence</w>": 11617, "scandin": 32014, "formative</w>": 48882, "unemployment</w>": 19350, "ðŁį»</w>": 13167, "insur": 5024, "biomar": 44549, "mandy</w>": 24302, "funny</w>": 3789, "does": 2397, "mull</w>": 35310, "birds</w>": 4337, "macau</w>": 33370, "theast</w>": 8378, "swipe</w>": 31828, "yaki</w>": 44677, "opensource</w>": 29930, "urn</w>": 38075, "mclaren": 37381, "resto</w>": 41666, "nerf</w>": 42914, "beta": 43188, "madra": 27416, "erased</w>": 46762, "wags</w>": 48580, "trait</w>": 35160, "christop": 7917, "abdu": 13361, "pfa</w>": 47839, "entire</w>": 4709, "euchar": 38362, "visits</w>": 8489, "will": 5062, "altar</w>": 16385, "gi": 707, "kyo</w>": 6281, "cisely</w>": 33434, "minne": 7083, "moor": 14817, "if": 8063, "mott": 44570, "zad": 47314, "melissa": 41866, "¸": 116, "emission</w>": 27761, "rednationrising</w>": 28262, "marin": 8910, "risis</w>": 37998, "op": 676, "ilo": 4220, "crm</w>": 22610, "rory</w>": 17813, "trecht</w>": 33812, "flights</w>": 10515, "indigenous</w>": 9303, "specialized</w>": 23265, "ðŁı¼âĢįâĻĢï¸ı</w>": 28955, "eisen": 25273, "poise</w>": 45087, "@___</w>": 48308, "kosher</w>": 36502, "heidi": 44860, "circumstances</w>": 18786, "yogur": 16137, "coops</w>": 48531, "mitch</w>": 14150, "tropic</w>": 36736, "fers</w>": 12378, "ater": 18597, "iously</w>": 38233, "skincare</w>": 12648, "oul": 20253, "piff</w>": 40719, "millionaire</w>": 25179, "rocco</w>": 30009, "please": 41074, "challenging</w>": 11754, "rides</w>": 11308, "chaplain</w>": 38348, "completion</w>": 15915, "acl</w>": 23073, "peregr": 37479, "huskers</w>": 26946, "afirst</w>": 38601, "munch</w>": 33299, "federer</w>": 18246, "tartan</w>": 35064, "trans": 1826, "stil": 21790, "vm": 16204, "slept</w>": 20388, "throwbackthursday</w>": 6326, "cay</w>": 37399, "wie": 21378, "teddy": 25758, "pca</w>": 35705, "fandom": 47634, "samanthaprabhu</w>": 38643, "aerospace</w>": 20530, "sement</w>": 10714, "meal</w>": 5478, "sentim": 25102, "pumps</w>": 18540, "travelblogger</w>": 25494, "hardt</w>": 17922, "notor": 21711, "aspire</w>": 24836, "incredibly</w>": 9513, "naira</w>": 39450, "toddler</w>": 17772, "nuff</w>": 37324, "adia</w>": 26874, "turt": 13716, "pendleton</w>": 44272, "venice</w>": 11010, "¢</w>": 351, "nies</w>": 10586, "macho</w>": 43977, "ridley</w>": 27883, "direc": 1534, "ilis</w>": 43442, "noah</w>": 11519, "ogun": 48970, "harrier</w>": 37372, "ly</w>": 597, "jeffree": 45994, "tabletop": 46843, "ikea</w>": 20528, "brig": 11081, "waist": 36946, "fries</w>": 11369, "sals</w>": 16307, "stree</w>": 32438, "docked</w>": 46784, "charlotte": 18445, "eridge</w>": 45408, "asher</w>": 37585, "crank": 46246, "ðŁĺįðŁĺį</w>": 6471, "prede": 38454, "mentalhealth</w>": 13022, "saries</w>": 47586, "handwriting</w>": 29986, "occa": 8530, "insulation</w>": 28194, "abrams</w>": 29852, "drone": 33557, "meo</w>": 30792, "âĻ«</w>": 10814, "relaxation</w>": 22194, "ðŁį©</w>": 38379, "doll</w>": 9286, "exop": 35288, "agri</w>": 30326, "behaved</w>": 41617, "campbell</w>": 8806, "friars</w>": 30513, "space</w>": 2138, "lool</w>": 33125, "roar</w>": 18483, "rover</w>": 12776, "punished</w>": 31598, "depressing</w>": 29235, "tryouts</w>": 28053, "breeding</w>": 16544, "cognition</w>": 46825, "conduc": 5379, "happen</w>": 4506, "lamo": 41461, "hearth": 31563, "fancy</w>": 6733, "chino</w>": 27440, "hawke</w>": 38178, "adoptdont": 19674, "shock": 19617, "awkward</w>": 10304, "ðŁĹ£</w>": 18583, "mais</w>": 28153, "fossil</w>": 15202, "naby</w>": 24800, "mulligan</w>": 44336, "difficult</w>": 7405, "alumnus</w>": 23633, "bb</w>": 3529, "bos": 14885, "clocks</w>": 25895, "dotted</w>": 47950, "agle": 37035, "pokes</w>": 40221, "atta</w>": 9146, "gaine": 35747, "frames</w>": 15479, "munster</w>": 27201, "wang": 19731, "thanks</w>": 1085, "installing</w>": 18301, "sleeveless</w>": 38049, "centered</w>": 24584, "ri</w>": 2574, "conveniently</w>": 40844, "viol": 3164, "abour</w>": 46637, "fcbayern</w>": 35033, "gripping</w>": 34567, "eph": 45752, "place": 14884, "thismorning</w>": 36245, "neel": 33092, "stylist</w>": 15928, "nash</w>": 13620, "senator": 20871, "ateau</w>": 16359, "rics</w>": 7353, "buildthe": 41497, "lieu": 20401, "goss</w>": 36924, "beech": 32733, "perez</w>": 15107, "pnp</w>": 25972, "gue": 2030, "ropes</w>": 30506, "fiance</w>": 44114, "dels</w>": 48636, "billionaire</w>": 19475, "flea</w>": 24883, "drummer</w>": 13618, "carrie": 30334, "brooks": 42779, "bled</w>": 12006, "kappa</w>": 20239, "fra</w>": 15644, "cade": 10497, "smuggling</w>": 34146, "jinping</w>": 39308, "broad": 3491, "uso</w>": 21539, "thrift</w>": 27779, "gry</w>": 5364, "canadian": 22160, "nin</w>": 14145, "starlight</w>": 32197, "wrinkles</w>": 35525, "amit</w>": 25255, "dall</w>": 43631, "center</w>": 2119, "raceway</w>": 24650, "em": 908, "campground</w>": 46969, "aca</w>": 9213, "professor": 47302, "wec</w>": 33152, "ilwx</w>": 43777, "enough</w>": 2744, "angels</w>": 7809, "trippy</w>": 35137, "scum</w>": 29655, "dings</w>": 5473, "shers</w>": 14141, "attach": 43676, "hiber": 38799, "talents</w>": 16136, "expenses</w>": 21797, "dss</w>": 41580, "brill": 27342, "almost</w>": 2671, "highered</w>": 27072, "tah": 14822, "icom": 17693, "mens": 16924, "yann</w>": 38657, "eyel": 17075, "mikel</w>": 48865, "giving": 14673, "dusted</w>": 38274, "jarpad</w>": 44497, "serenawilliams</w>": 48316, "seman": 29119, "mond": 14522, "choco": 46285, "ely": 12189, "steampunk</w>": 24130, "translucent</w>": 49052, "healthcare": 42500, "cutt</w>": 47647, "nonsense</w>": 19136, "uncle</w>": 8002, "jol": 9174, "diplomat</w>": 32828, "manners</w>": 31693, "hereto": 47673, "consultation</w>": 15777, "cologne</w>": 22216, "ven": 1240, "ceme": 10517, "?)</w>": 9626, "gazing</w>": 28373, "flip": 20385, "sla</w>": 26707, "stweets</w>": 39174, "bake</w>": 11878, "gol": 1537, "hermi": 35265, "kindly</w>": 13952, "'âĢ¦</w>": 42120, "mexicans</w>": 47729, "happye": 33922, "cram": 29809, "ryu</w>": 34604, "umbrellas</w>": 42782, "heartless</w>": 47022, "storians</w>": 34628, "marian": 41129, "fostering</w>": 35996, "tata</w>": 19300, "rti</w>": 47549, "slam</w>": 10131, "leagues</w>": 19888, "auga</w>": 22797, "fp</w>": 8941, "ough</w>": 991, "compression</w>": 25638, "arbor</w>": 24878, "enegger</w>": 33235, "dyed</w>": 24906, "cun": 12423, "pac</w>": 7608, "denti": 4418, "xpress</w>": 31809, "cards</w>": 4094, "glock</w>": 38818, "opposed</w>": 22509, "sexu": 14741, "horser": 23096, "undercover</w>": 21595, "fortnite</w>": 17890, "afe</w>": 13912, "bonds</w>": 15786, "lenovo</w>": 25886, "ðŁįº": 31081, "chardonnay</w>": 28161, "bard": 39812, "ril": 12270, "uv</w>": 15977, "feu": 24912, "ashford</w>": 37796, "timehop</w>": 19944, "use</w>": 1483, "symposium</w>": 9971, "astrid</w>": 46499, "mask": 19262, "ãĢģ</w>": 45262, "marc</w>": 9075, "know": 4179, "izo</w>": 46910, "salz": 33594, "indul": 19402, "poutine</w>": 43768, "gog</w>": 42949, "tierney</w>": 45693, "hoot</w>": 29164, "marissa</w>": 31219, "damascus</w>": 25396, "styling</w>": 14597, "bbe</w>": 37559, "rapidly</w>": 16710, "hutton</w>": 38321, "rosy</w>": 46705, "commanders</w>": 41667, "slovenia</w>": 21037, "hai": 8734, "gloss</w>": 22014, "certain</w>": 7883, "shutt": 31866, "fever</w>": 9989, "ef</w>": 1829, "baldhead</w>": 29191, "clouds</w>": 6244, "sari</w>": 20261, "tv": 3197, "filly</w>": 27690, "barking</w>": 32676, "ucf</w>": 24414, "vladimir</w>": 21702, "gyne": 45836, "germany</w>": 4464, "muir": 44650, "minute": 28931, "jor": 2482, "quen</w>": 38324, "ðŁļ¶": 46060, "garrison</w>": 30108, "nightingale</w>": 40696, "spe</w>": 36676, "looo": 20902, "pbr</w>": 32998, "start</w>": 1572, "adequate</w>": 22281, "assorted</w>": 36701, "quant": 15050, "blames</w>": 27841, "panorama</w>": 19763, "granth": 41283, ">>>>>>>>": 41947, "ner": 2064, "ìķ": 16071, "walt": 23535, "embelli": 32144, "aard": 46932, "dreambig</w>": 46495, "jimi</w>": 30565, "searched</w>": 28961, "iran</w>": 5075, "makeit": 26308, "kemp</w>": 25325, "latt": 33561, "academy</w>": 4041, "philippe</w>": 20942, "draws</w>": 12043, "uklabour</w>": 36902, "joyce</w>": 15275, "favorable</w>": 35392, "adc</w>": 38201, "mav": 25697, "oblast</w>": 42672, "x": 87, "escapes</w>": 29916, "fats</w>": 30151, "scr</w>": 36131, "artisans</w>": 40140, "xrp</w>": 26965, "amal": 15315, "ond</w>": 2636, "tet": 40468, "mocking": 28692, "erase</w>": 33893, "wine</w>": 2604, "lithograph</w>": 49022, "givingtuesday</w>": 23556, "watched</w>": 5775, "âĿ¤ï¸ıðŁĴĻ</w>": 37380, "tenstein</w>": 49139, "hypothe": 46966, "courage</w>": 9828, "ua</w>": 8441, "industry": 47407, "juvenile</w>": 19333, "weight": 12723, "niam": 39347, "symph": 9544, "consoles</w>": 33136, "portal</w>": 14982, "procu": 21001, "prod": 44349, "ellis</w>": 11553, "specific</w>": 10528, "á</w>": 413, "belli": 43335, "asbe": 32113, "inals</w>": 26438, "!!!!!!!</w>": 15203, "enf": 38167, "wye": 48436, "arrested</w>": 5845, "photogra": 36754, "cine</w>": 27451, "cruelty</w>": 20675, "poaching</w>": 35140, "journalist</w>": 9914, "nade": 24908, "bach": 11773, "amanda</w>": 10036, "suscep": 44270, "srp</w>": 43004, "finna</w>": 35180, "dwarf</w>": 22643, "withme</w>": 44670, "crashed</w>": 16638, "xj</w>": 42453, "harms</w>": 46703, "varan": 36585, "meter</w>": 10104, "canal</w>": 9535, "://</w>": 12441, "captainmarvel</w>": 48492, "httweets</w>": 43198, "forever</w>": 3225, "religi": 4940, "eee</w>": 9361, "keefe</w>": 46965, "anchor</w>": 13201, "proactive</w>": 33364, "col": 754, "abc</w>": 5334, "owns</w>": 17533, "mickey</w>": 13053, "otwol": 46868, "bowled</w>": 39987, "lux": 3439, "moist</w>": 33263, "tabern": 48991, "amelia</w>": 21433, "net</w>": 2315, "leam": 39606, "law</w>": 2606, "blower</w>": 25832, "opathic</w>": 37521, "marvelous</w>": 25487, "ister</w>": 14555, "shaw": 6122, "combination</w>": 11312, "raw": 10166, "urology</w>": 48585, "enic": 46780, "senpai</w>": 46562, "Øª</w>": 44333, "babysitting</w>": 34186, "heathrow</w>": 24171, "mson</w>": 12298, "tetra": 40902, "ðŁĺķ</w>": 20602, "rugs</w>": 29946, "apples</w>": 14032, "dixie</w>": 24484, "pilipinas</w>": 32392, "much": 14300, "mainstream</w>": 18034, "shameful</w>": 28283, "students</w>": 1712, "yoga": 25872, "russell</w>": 8150, "bernardino</w>": 35328, "stig</w>": 42551, "santorini</w>": 39573, "valves</w>": 33517, "precautions</w>": 47845, "lymph": 30073, "ðŁĹ£": 33232, "hanuk": 32774, "fake</w>": 5777, "theft</w>": 13286, "faceted</w>": 43435, "tempered</w>": 40521, "meric</w>": 27097, "auto</w>": 5668, "jer": 2310, "widow</w>": 19949, "prick</w>": 46516, "layton</w>": 38061, "carvings</w>": 48123, "eee": 24632, "rac</w>": 30462, "jones</w>": 3538, "menswear</w>": 18803, "agh": 17917, "pretending</w>": 21306, "leng": 7861, "globalhealth</w>": 46751, "client": 48528, "sinister</w>": 31313, "hanna</w>": 10075, "iva</w>": 42463, "aamaadmi": 45563, "mawards</w>": 37682, "å±": 46096, "childhood": 34772, "angelo</w>": 14342, "sensational</w>": 23051, "halep</w>": 49017, "otta</w>": 20941, "britain</w>": 6272, "due</w>": 2887, "scorsese</w>": 45975, "Ãª": 27515, "dirt</w>": 11795, "shake</w>": 8251, "accessory</w>": 20417, "haul</w>": 12332, "ebay": 34412, "galerie</w>": 44539, "stest</w>": 8556, "lime</w>": 11193, "via</w>": 1048, "mbi</w>": 45347, "slv</w>": 45526, "mak": 11271, "percu": 41722, "bulk</w>": 19643, "barr": 39473, "laze</w>": 41559, "mayor</w>": 4676, "istandwith": 33820, "Y</w>": 312, "greg</w>": 7943, "seamless</w>": 29373, "uns</w>": 25908, "greysanatomy</w>": 36833, "so": 759, "feedback</w>": 8683, "paper</w>": 2802, "à¸µ</w>": 20278, "tasmania</w>": 22429, "aer": 10195, "ontario": 42766, "chemistry</w>": 8841, "pathway</w>": 23488, "conti</w>": 40842, "bine</w>": 34848, "sticks</w>": 10016, "dag</w>": 25650, "logy</w>": 1659, "invaded</w>": 32596, "ricul": 6980, "base": 2776, "abz</w>": 42292, "âļłï¸ı</w>": 15596, "ghton</w>": 16353, "adish</w>": 49009, "sundae</w>": 38078, "brien</w>": 13504, "eth</w>": 5927, "zio</w>": 13906, "pdx": 25470, "Ã¡n</w>": 21385, "crowdfunding</w>": 17971, "losers</w>": 23201, "park": 4985, "bodybuilding</w>": 24538, "logo": 31480, "tracker</w>": 18123, "mtb</w>": 18747, "namibia</w>": 23731, "competent</w>": 28113, "steve": 7412, "ðŁı»âĢįâĻĢï¸ı": 48391, "s</w>": 338, "chim": 10543, "thos</w>": 41965, "reefs</w>": 34459, "juniors</w>": 16811, "turning</w>": 4976, "designation</w>": 41155, "cist</w>": 40906, "annabelle</w>": 47661, "monste": 47045, "kisses</w>": 11220, "verify</w>": 34722, "lesser</w>": 20369, "rosenthal</w>": 46990, "dareto": 46794, "jap": 2299, "battle": 7344, "schnei": 19941, "survivor</w>": 10944, "joy": 6308, "smiths</w>": 27872, "scotti": 6227, "monia</w>": 31161, "perspec": 17997, "inde": 2645, "hf": 26606, "bullet</w>": 12465, "walker</w>": 6150, "arius</w>": 21482, "siblings</w>": 17156, "huston</w>": 46480, "rounder</w>": 37024, "swansea</w>": 16567, "tionality</w>": 24514, "ded": 16744, "sympathy</w>": 32477, "rs</w>": 1724, "¡ï¸ı": 15113, "fav": 1355, "instag": 14612, "lois</w>": 27040, "gpu</w>": 38561, "k</w>": 330, "february</w>": 4248, "dhu": 32387, "gyn</w>": 39603, "barbar": 7906, "aviation</w>": 7617, "bumping</w>": 40196, "ðŁĺ¥</w>": 23951, "vanuatu</w>": 48766, "make": 3232, "hotmail</w>": 46427, "tany": 34410, "kicked</w>": 12479, "notebook</w>": 16365, "holly": 12731, "sik</w>": 22413, "operators</w>": 19267, "bearish</w>": 34829, "cameron</w>": 8057, "buhari</w>": 14661, "pluto</w>": 26380, "iber": 23814, "clearing</w>": 15481, "spg</w>": 34623, "ðŁĺŃðŁĺŃðŁĺŃðŁĺŃðŁĺŃ</w>": 43366, "grove</w>": 7463, "book": 2828, "yeol</w>": 15808, "zz</w>": 4943, "ads</w>": 2485, "âĢįâĻĢï¸ı": 18897, "gini</w>": 35768, "shuttle</w>": 15842, "aretha</w>": 42090, "pharmacy</w>": 15293, "detecting</w>": 41290, "genealo": 24142, "mariano</w>": 43988, "hunger</w>": 10184, "cv": 13531, "Ã±a</w>": 17753, "kashmir</w>": 10783, "riv": 25113, "counselor</w>": 26148, "mire": 38140, "tomatoes</w>": 13004, "inese</w>": 35966, "bos</w>": 9644, "time": 3764, "twins</w>": 8040, "letics</w>": 14504, "hoes</w>": 21164, "disturbing</w>": 21476, "Ī</w>": 486, "chman</w>": 35835, "bbcradi": 49213, "keen": 17714, "nicest</w>": 22967, "integrating</w>": 31555, "tweeta": 32024, "transatlantic</w>": 40703, "schoolers</w>": 31455, "l</w>": 331, "abudha": 21450, "sium</w>": 8090, "cz</w>": 22921, "glaston": 26848, "gettysburg</w>": 37062, "mainedcm</w>": 15845, "savings</w>": 10651, "ress</w>": 13629, "mansfield</w>": 25543, "tters</w>": 6318, "mapped</w>": 41596, "reform</w>": 8875, "correction</w>": 20843, "coworker</w>": 30727, "spence</w>": 33324, "secondary</w>": 13107, "vigne</w>": 34581, "transport": 10231, "demo</w>": 7380, "jaz": 3465, "sooooo</w>": 21199, "isabella</w>": 26192, "delici": 19993, "eve</w>": 1866, "jodh": 48689, "lour": 29383, "sausages</w>": 31593, "cuffs</w>": 37221, "qui": 1912, "namesake</w>": 41298, "terrible</w>": 9741, "yyyy": 38749, "holme</w>": 46149, "?!": 9785, "signs</w>": 4659, "cryp": 4865, "grandparents</w>": 21311, "imprison": 22141, "cheerleaders</w>": 22343, "innovation</w>": 4272, "han": 1545, "jud": 8363, "splend": 29861, "fixtures</w>": 19904, "hms</w>": 14625, "conduct</w>": 11647, "rece": 1890, "pentagon</w>": 23133, "pengu": 8854, "arran</w>": 45722, "mistak": 20478, "lemons</w>": 29576, "charlie": 16764, "ðŁĳĩ": 7662, "sean</w>": 6077, "wewant": 39280, "staffer</w>": 38494, "prosthetic</w>": 44602, "formed</w>": 6528, "defends</w>": 20134, "tone</w>": 8408, "drone</w>": 9397, "skysports</w>": 46725, "referee</w>": 20398, "shopper</w>": 24346, "whilst</w>": 8596, "gener": 1832, "proving</w>": 18055, "happybirthday": 9651, "should</w>": 1535, "watches</w>": 9521, "lightening</w>": 28170, "wings</w>": 5178, "jis</w>": 23515, "spam</w>": 14624, "taz</w>": 31870, "basis</w>": 12278, "âĦ": 8604, "device</w>": 8163, "zeke</w>": 47065, "falling</w>": 7293, "awec</w>": 38916, "tary": 31729, "lisbon</w>": 17708, "ðŁĻĮðŁı½</w>": 22962, "bestfriends</w>": 23555, "hillary": 13257, "shadowing</w>": 46092, "bark</w>": 16560, "celebratory</w>": 34115, "foley</w>": 22850, "heidel": 42927, "kk</w>": 10849, "falsely</w>": 42321, "avs</w>": 31896, "kiran": 43234, "grizz": 14877, "score</w>": 4431, "reimbur": 39857, "à¸Ń": 13398, "taehyung</w>": 24642, "emilio</w>": 39722, "como</w>": 16236, "heavyweight</w>": 17448, "F</w>": 293, "vaj": 34206, "lexus</w>": 20694, "sundaymorning</w>": 24809, "pagoda</w>": 44309, "bhand": 48679, "cleopatra</w>": 41212, "tez</w>": 22664, "outside</w>": 2782, "ðŁļ´": 30825, "zania</w>": 15059, "dil</w>": 17942, "petri": 31831, "passive</w>": 23171, "sfx</w>": 37995, "went</w>": 2437, "delayed</w>": 14567, "stallion</w>": 28273, "wie</w>": 9131, "loy": 4519, "havent</w>": 29130, "apprentice": 19122, "oura</w>": 36352, "aber": 7828, "jordan": 14644, "ball</w>": 1069, "potat": 5975, "tumbling</w>": 46226, "address</w>": 5834, "vocal</w>": 13147, "factor</w>": 8124, "ðŁĲ¥</w>": 42981, "ationday</w>": 20082, "moda</w>": 25814, "hiphop</w>": 10914, "succession</w>": 38491, "figure": 48820, "sully</w>": 37752, "iri</w>": 13880, "accountant</w>": 31026, "cardio": 15003, "subaru</w>": 21319, "æľ¬": 44353, "hummingbird</w>": 33072, "buccaneers</w>": 38058, "strategy</w>": 5637, "whats</w>": 13084, "kalyan</w>": 23825, "ĉ": 197, "davids</w>": 46695, "boyfriends</w>": 36541, "museum": 15602, "lafayette</w>": 22683, "Ð¾Ð´": 38416, "jb": 21915, "chilled</w>": 23540, "emmy</w>": 17089, "emplo": 3409, "embarra": 11382, "acknowledged</w>": 35913, "camino</w>": 28529, "arsenal": 45234, ";))</w>": 41873, "tyr": 15590, "âĢ³</w>": 25061, "planting</w>": 13922, "dream</w>": 2984, "allblacks</w>": 47728, "pivotal</w>": 31432, "loren</w>": 33398, "grateful</w>": 5730, "hip": 11725, "dres</w>": 44697, "fares</w>": 27525, "moma</w>": 33605, "insi": 3453, "fsu</w>": 19317, "values</w>": 8857, ":'(</w>": 21250, "scenes</w>": 5415, "pasha</w>": 46986, "liven": 41057, "dysle": 33681, "jeffrey": 32886, "apostle</w>": 33051, "capacity</w>": 8970, "hudson": 25873, "prepares</w>": 16375, "stefano</w>": 30719, "oye": 48677, "investigation</w>": 8194, "ayurveda</w>": 38986, "ðŁĮ¸": 16314, "favorite": 35262, "secu": 4894, "thierry</w>": 32929, "homophobic</w>": 40975, "ross</w>": 2158, "victories</w>": 24577, "å¥": 29290, "hyder": 13960, "god</w>": 1731, "fren": 2919, "gotten</w>": 5889, "actor": 12181, "âľı": 32574, "eun": 16431, "manag": 1830, "litfest</w>": 40369, "icist</w>": 21165, "gaye</w>": 41401, "porsche</w>": 8783, "jah</w>": 11084, "err": 22479, "regulating</w>": 48156, "videos</w>": 6081, "date": 34300, "recommended</w>": 11100, "rouge</w>": 16209, "athi</w>": 28918, "ðŁıĲ": 46334, "sec</w>": 5338, "âĺĳ": 20983, "lobo</w>": 39323, "litt</w>": 47583, "pollinators</w>": 36599, "bly": 20930, "marches</w>": 38249, "bigg": 15312, "elves</w>": 29111, "overly</w>": 28820, "īï¸ı</w>": 37463, "ugh</w>": 12755, "tellu": 42511, "ead": 42556, "ruption</w>": 35403, "xiii</w>": 28199, "trend": 19986, "bag": 3408, "resumes</w>": 30268, "graf": 46478, "lindo</w>": 38467, "fiasco</w>": 40944, "takin</w>": 30890, "hymn</w>": 41350, "antarctica</w>": 22587, "vanity</w>": 22938, "ĉ</w>": 453, "director": 20337, "sero": 48883, "Ļ</w>": 503, "shane": 26863, "wrist": 19243, "subscribers</w>": 17337, "foolish</w>": 33824, "augh</w>": 14005, "graphers</w>": 32088, "bailey": 27535, "yu</w>": 8887, "bookstore</w>": 17999, "omer": 24087, "thebest</w>": 25856, "explosives</w>": 44705, "willard</w>": 44920, "finite</w>": 48312, "wandering</w>": 22597, "fru": 3248, "falkirk</w>": 44080, "aladdin</w>": 29951, "blitz</w>": 17548, "strade</w>": 48968, "colorway</w>": 44576, "naom": 34955, "mma</w>": 6096, "schmid": 17375, "sting</w>": 1271, "mg": 10003, "met": 5249, "massachusetts</w>": 14756, "Ã¯": 35689, "artist</w>": 2456, "pursue</w>": 19463, "mcmillan</w>": 45603, "flashback": 14616, "jerome</w>": 19876, "stration</w>": 3156, "ghouse</w>": 38238, "elong": 44363, "psychop": 30112, "profs</w>": 19260, "goldeng": 20650, "nix</w>": 32278, "burton</w>": 12704, "dew": 31952, "freak</w>": 13701, "dread</w>": 31403, "âĻ¡âĻ¡": 22360, "pax</w>": 19033, "azzle</w>": 39974, "youknow</w>": 41088, "gameof": 10987, "liqueur</w>": 43612, "luv</w>": 8502, "achieve": 14798, "buck</w>": 11433, "organizational</w>": 29510, "catwalk</w>": 36565, "socent</w>": 30831, "hh</w>": 5180, "ðŁĺĤ.</w>": 42550, "sk</w>": 2058, "sabcnews</w>": 41093, "cx</w>": 14283, "saa</w>": 13429, "vival": 35920, "lulla": 37019, "taiwanese</w>": 41416, "conservatory</w>": 32140, "dragging</w>": 37069, "dubai</w>": 5985, "gshore</w>": 43392, "pictures</w>": 3646, "expanding</w>": 15755, "not": 2534, "choic": 35606, "tright</w>": 29915, "arvind</w>": 41079, "shareholders</w>": 34778, "young": 6939, "womancrush": 37721, "fitter</w>": 42096, "lbs</w>": 8912, "effort": 40078, "belgian</w>": 15008, "ballroom</w>": 15493, "citiz": 5816, "admiration</w>": 39569, "reels</w>": 48127, "unite</w>": 11305, "agend": 48653, "kc": 10869, "phat</w>": 42492, "australians</w>": 31488, "diagram</w>": 22697, "wil</w>": 20581, "cartoonist</w>": 30793, "atene": 30405, "ssp</w>": 31101, "agers</w>": 22123, "âłĢ": 9691, "wont": 43174, "foursquare</w>": 34484, "aro</w>": 11551, "kja": 41048, "baek</w>": 32702, "span": 4270, "metabolic</w>": 34311, "magnetic</w>": 13838, "thole</w>": 31029, "bella": 18282, "tongues</w>": 39837, "paella</w>": 46924, "secular</w>": 27560, "shou": 3890, "ðŁĺ³ðŁĺ³": 32592, "opath": 33079, "wanda</w>": 25070, "wildatlantic": 35500, "ceram": 10677, "mayward": 45751, "vienna</w>": 12670, "pockets</w>": 19566, "been": 33986, "person</w>": 2533, "doorstep</w>": 19533, "averaged</w>": 37310, "raft</w>": 9233, "gett</w>": 27965, "urging</w>": 27748, "â</w>": 414, "thicker</w>": 43302, "recurring</w>": 35912, "stol": 11401, "encouraging</w>": 15875, "ðŁ¤Ĺ</w>": 10465, "evo": 17962, "aven": 5963, "playin</w>": 24674, "engineer</w>": 8517, "ayat</w>": 35720, "ising</w>": 3426, "chara</w>": 35668, "napier</w>": 40875, "kdrama</w>": 48628, "forks</w>": 28769, "explorer</w>": 15776, "serve": 39202, "mock": 15641, "ningham</w>": 23395, "feed": 6662, "spout</w>": 48993, "empower</w>": 17230, "ios</w>": 6614, "confu": 6890, "grabbing</w>": 26440, "crab": 27382, "materials</w>": 8161, "celed</w>": 25741, "gloves</w>": 12363, "entertainer</w>": 28674, "arranged</w>": 22451, "urve": 24583, "bcc</w>": 41509, "redi": 7976, "compton</w>": 28364, "fx": 17807, "resurrec": 18487, "reich</w>": 28929, "group</w>": 1771, "different</w>": 2731, "gob": 29559, "chey": 26968, "astu": 43137, "trolls</w>": 20890, "angular": 43584, "thescript</w>": 47061, "thessaloni": 41753, "chandra</w>": 25348, "cron": 17361, "brooks</w>": 9991, "southwark</w>": 39098, "stles</w>": 48638, "malt</w>": 21688, "treatment</w>": 4869, "pinoy": 43578, "bjor": 26525, "onist</w>": 10099, "iss": 11738, "worldwater": 41176, "stargazing</w>": 49328, "infographics</w>": 33172, "hari</w>": 8981, "wool": 9967, "mclaughlin</w>": 35346, "sos": 25145, "sias</w>": 28645, "autographed</w>": 16309, "lanes</w>": 10345, "twelf": 39443, "Ì</w>": 392, "allocation</w>": 35139, "acker": 31201, "belong</w>": 13596, "strate": 3532, "tonka</w>": 42781, "marathon": 40764, "pox</w>": 43649, "destiny</w>": 10867, "characteristic</w>": 44747, "pher</w>": 19828, "ðŁĩ·ðŁĩº</w>": 37902, "guardi": 12008, "hit": 5453, "peacekeeping</w>": 43630, "anner</w>": 12642, "situ</w>": 42536, "frit": 34614, "wipe</w>": 26761, "ft": 3391, "leagueoflegends</w>": 31737, "grey": 9190, "interpreting</w>": 46525, "roadto": 24681, "ðŁĻıðŁı¾</w>": 21979, "cdt</w>": 18455, "hb</w>": 12576, "ãĥĥ": 28902, "bbce": 33818, "ipa</w>": 11199, "soaking</w>": 26750, "shal</w>": 28175, "bleeding</w>": 20311, "deserves</w>": 9079, "sacha</w>": 49010, "commen": 15795, "clearer</w>": 37031, "opposing</w>": 24376, "daniel": 7859, "dsp</w>": 45291, "jewels</w>": 20205, "limel": 48658, "honored</w>": 5494, "bone": 22502, "dese": 27195, "bachchan</w>": 17690, "vespa</w>": 46029, "rw</w>": 22926, "green": 2762, "sire</w>": 28450, "quezon</w>": 41117, "inno": 7961, "cumber": 15309, "extend</w>": 14492, "gni": 5104, "nicaragua</w>": 28423, "foto</w>": 12823, "tician</w>": 43358, "truck": 14781, "experi": 4723, "goth": 48465, "vacation</w>": 6561, "paren": 3106, "hip</w>": 6584, "pretty": 18286, "inn": 27260, "ðŁĩ¦ðŁĩº</w>": 25192, "skipper</w>": 22226, "demonetisation</w>": 41338, "sculp": 6093, "wei</w>": 20952, "author</w>": 4358, "ðŁĲ·</w>": 38408, "acknowledges</w>": 49083, "camel</w>": 21914, "leather</w>": 5862, "rajas": 16185, "last": 10600, "legacy</w>": 6447, "copolitics</w>": 45846, "hope": 5263, "kfc</w>": 22032, "sris": 27851, "jet</w>": 6565, "mussels</w>": 33393, "commodore</w>": 31129, "np": 18205, "belgi": 7001, "patti</w>": 26123, "kilimanjaro</w>": 43470, "cos": 5865, "melanch": 44818, "pv": 14517, "goku</w>": 29550, "lak</w>": 26793, "constituency</w>": 22464, "schedules</w>": 28986, "vero</w>": 38208, "shraddha": 35208, "surat</w>": 30201, "office</w>": 2171, "meghan": 39939, "gosh</w>": 15395, "well</w>": 1123, "airmen</w>": 44499, "phara": 35792, "angs</w>": 18441, "acre</w>": 9493, "mundo</w>": 20990, "assault</w>": 9679, "freight</w>": 17023, "protests</w>": 12450, "labout": 35961, "thrash</w>": 38262, "spad": 45362, "ravens</w>": 17946, "firefighters</w>": 12600, "kingdoms</w>": 43890, "jenny": 20165, "ft</w>": 981, "hank</w>": 17655, "stive</w>": 22426, "kale": 17162, "resources</w>": 6723, "lb</w>": 7422, "spen": 5087, "sidelines</w>": 31046, "lax</w>": 10024, "judg": 20012, "main": 3904, "ario</w>": 8862, "tery</w>": 4184, "appointments</w>": 23439, "scowboys</w>": 31386, "asking</w>": 5914, "introduce</w>": 9813, "clio</w>": 46889, "durga</w>": 38456, "jail</w>": 9332, "katsu</w>": 43712, "tril": 40626, "cavill</w>": 40492, "cooking</w>": 6283, "obl": 31452, "âľħ</w>": 5564, "spheres</w>": 37478, "threat": 7527, "ilu": 27337, "mckinsey</w>": 48143, "elm": 25199, "prawns</w>": 34903, "adversity</w>": 32516, "lucent</w>": 41552, "âľĸï¸ı</w>": 44133, "geared</w>": 33903, "ultimate</w>": 5377, "jewellery</w>": 11192, "ligan</w>": 27962, "greeng": 42077, "corrosion</w>": 39191, "reel": 34467, "ðŁĮļ</w>": 27877, "total</w>": 4445, "bbmas</w>": 22145, "nima</w>": 42586, "âĺĢ</w>": 22242, "mir": 2750, "allenge</w>": 31387, "hardwork": 42554, "adm": 9892, "kers": 30347, "repeal</w>": 23938, "fragrances</w>": 44567, "hogg</w>": 42005, "gray": 12703, "park</w>": 1452, "aur": 8156, "vla": 23686, "revision</w>": 20335, "garros</w>": 40425, "unitedstates</w>": 39636, "mermaid</w>": 16064, "beijing</w>": 11796, "aura</w>": 27728, "meh</w>": 22211, "yell</w>": 30824, "goodies</w>": 13308, "rend</w>": 22851, "dhe": 29706, "liar</w>": 16334, "crushing</w>": 20790, "traders</w>": 19112, "rachael</w>": 29095, "gmo</w>": 23486, "genes</w>": 19683, "neman</w>": 48553, "vol</w>": 7945, "parades</w>": 46479, "felicia</w>": 41139, "¤</w>": 353, "rising": 30452, "ðŁĻıðŁı¼": 31163, "omen</w>": 25469, "ahu": 11908, "ru": 681, "crucial</w>": 12396, "pet</w>": 3703, "metro</w>": 6784, "artistson": 32127, "chandigarh</w>": 34106, "remove</w>": 9709, "mey</w>": 27777, "springtraining</w>": 49364, "lare": 22415, "crosses</w>": 20473, "ort</w>": 1019, "underrated</w>": 19494, "kidnapp": 16183, "harding</w>": 24382, "broke": 42165, "imax</w>": 32066, "hoy": 39625, "tx</w>": 5200, "landlord</w>": 28938, "cone": 39279, "tanz": 47399, "lamborgh": 18709, "creators</w>": 17981, "chipp": 39854, "zika</w>": 28783, "by": 1713, "brid": 16995, "©</w>": 358, "buc": 8207, "cavity</w>": 43156, "page": 14996, "rabbits</w>": 27028, "forth": 17068, "profession": 8104, "bluff</w>": 27232, "congo</w>": 20334, "yasss</w>": 23873, "inexpensive</w>": 38614, "um": 1622, "amovie</w>": 41062, "acom</w>": 22342, "vss</w>": 31919, "cyber": 5830, "nor": 1062, "venture</w>": 12543, "fisherman</w>": 25055, "converts</w>": 42470, "ipp": 31706, "naw</w>": 30500, "functionality</w>": 33316, "hydrange": 43298, "flake</w>": 21221, "swel": 48470, "waver": 25997, "btsbbmas</w>": 35297, "à¸ª": 37883, "thingsto": 43924, "intermediate</w>": 24304, "elove</w>": 19165, "gonz": 10587, "gir</w>": 25481, "zol": 25939, "differently</w>": 18325, "dramatic</w>": 11240, "mul": 1899, "panels</w>": 12735, "headless</w>": 45219, "upri": 15982, "dividing</w>": 45605, "siers</w>": 35923, "pte</w>": 47804, "van": 2446, "xavier": 41044, "kensing": 21505, "trim</w>": 14182, "strack</w>": 46861, "seat</w>": 4922, "galat": 39853, "ban": 1159, "yab": 27737, "deni": 21995, "disturb</w>": 39449, "redo</w>": 42524, "vday</w>": 42055, "oster": 31781, "elephants</w>": 16871, "relief</w>": 7518, "bitcoin": 30848, "night</w>": 930, "fashioned</w>": 21563, "pto": 31372, "penn": 7760, "jamesc": 47004, "barak</w>": 16260, "vik</w>": 17181, "leigh": 14849, "remedies</w>": 25581, "revol": 13447, "ophobia</w>": 21111, "adu</w>": 24446, "fiscal</w>": 20825, "helped</w>": 4845, "chamber": 18983, "curt</w>": 38137, "nepal</w>": 10066, "regions</w>": 14530, "logists</w>": 12233, "canopy</w>": 26061, "stretching</w>": 24423, "leopold</w>": 45501, "mrt</w>": 30256, "rajiv</w>": 40197, "tomorrowspaper": 35005, "conductor</w>": 22317, "bamboo</w>": 16748, "fanci": 35908, "dwar": 13487, "hard</w>": 1626, "edi</w>": 27148, "sebring</w>": 41086, "hus</w>": 35853, "electrical</w>": 12176, "maro": 27029, "mixing</w>": 15588, "making</w>": 1665, "sincere": 24513, "optimize</w>": 30456, "arvind": 21209, "athan": 41260, "cope</w>": 12564, "ncc": 33195, "illers</w>": 30547, "conditional</w>": 24671, "mojito</w>": 46830, "jean</w>": 6473, "panel</w>": 3724, "usp": 26651, "kinky</w>": 37006, "california</w>": 3729, "âĺĢï¸ı</w>": 8219, "zero</w>": 5848, "besties</w>": 27346, "rements</w>": 12667, "chunky</w>": 27978, "appreciating</w>": 39352, "dawn": 30590, "volunte": 3556, "alli</w>": 15268, "luigi</w>": 28444, "luc</w>": 28014, "guts</w>": 25983, "gov": 4022, "stork</w>": 46452, "hotra</w>": 27109, "celesti": 29497, "archaeology</w>": 14868, "tothe": 12222, "ë°©íĥĦìĨĮëħĦëĭ": 26068, "lawrence": 32221, "ðŁıĩ</w>": 40288, "ru</w>": 13735, "apic": 40679, "thwaite</w>": 48469, "molo": 41510, "kwon</w>": 36369, "(Â£</w>": 33987, "historians</w>": 35200, "brian</w>": 4989, "nwo</w>": 40976, "promoted</w>": 16395, "inhabit": 36189, "backthe": 26127, "uci": 46354, "dwp</w>": 46976, "ðŁİīðŁİī": 25159, "cannon</w>": 15661, "hans</w>": 16628, "4": 19, "light</w>": 1395, "api</w>": 14674, "reinst": 33969, "elearning</w>": 29969, "laghateparth</w>": 48780, "Ã¸": 17483, "naturelovers</w>": 41514, "candace</w>": 45623, "tonnes</w>": 24813, "cosme": 9628, "res": 4466, "schicago</w>": 46230, "gabrielle</w>": 33572, "chal": 7397, "jazz": 11488, "lillard</w>": 47016, "flop</w>": 22994, "lemans</w>": 26694, "nier</w>": 13014, "butter": 5427, "thcentury</w>": 49111, "combating</w>": 46121, "dw</w>": 19997, "vip": 45714, "sping</w>": 47113, "departments</w>": 29523, "bma</w>": 42573, "acu": 9204, "realmadrid</w>": 27866, "classic": 9353, "upside</w>": 15362, "url</w>": 23464, "safari</w>": 14091, "gular</w>": 34969, "hamlin</w>": 49326, "fritz</w>": 29860, "trav</w>": 46955, "tommorow</w>": 42871, "informs</w>": 48440, "zagreb</w>": 35355, "forsyth</w>": 40952, "kos</w>": 22951, "cho</w>": 5150, "gothic</w>": 15426, "habit": 8491, "concor": 19913, "textured</w>": 32168, "step</w>": 3348, "playbook</w>": 34856, "dian</w>": 4998, "greek": 23844, "padma</w>": 46457, "graphies</w>": 40164, "lywood</w>": 4012, "vein</w>": 29169, "vicky</w>": 25788, "pseudo</w>": 46618, "awan": 48869, "droo": 30715, "candle": 18995, "hazmat</w>": 48887, "villa</w>": 7754, "algar": 36291, "ap": 688, "legend": 5480, "xper": 32200, "âĺĢï¸ı": 12817, "collaborating</w>": 25545, "consoli": 21586, "event": 10612, "mens</w>": 10495, "worldenviron": 47115, "gym": 9902, "clean</w>": 3772, "gallery": 36648, "autumn": 28940, "caregivers</w>": 35909, "lenders</w>": 42443, "kingston": 40736, "absorbed</w>": 45059, "rhp</w>": 27199, "gom": 7051, "ingo": 30175, "ðŁĺ¤": 26872, "auf</w>": 28924, "buss</w>": 47764, "cour": 1391, "aas</w>": 32205, "needs</w>": 2536, "tdi</w>": 45621, "pmo": 18782, "stitch</w>": 14771, "âĺºï¸ı": 11506, "equip</w>": 36979, "sug": 3189, "fantaken</w>": 39412, "delaying</w>": 43781, "crusader</w>": 40171, "accor": 4182, "riveting</w>": 44024, "sanders</w>": 10429, "reque": 9539, "musicians</w>": 12498, "uaap</w>": 43774, "prism": 49311, "turno": 21377, "undo</w>": 35454, "clifford</w>": 24226, "vacancy</w>": 21247, "bree</w>": 37138, "aju": 36855, "insect</w>": 21297, "gracious</w>": 29044, "vane</w>": 43828, "deadpool</w>": 21471, "zoning</w>": 36790, "vibes</w>": 7764, "motors</w>": 14989, "baltimore": 38502, "tends</w>": 39962, "focused</w>": 9319, "sort</w>": 8450, "joined</w>": 4954, "bistro</w>": 21770, "arnold</w>": 13609, "blond</w>": 32426, "sept</w>": 5380, "âĮ": 17848, "salem</w>": 16884, "believes</w>": 12017, "congress</w>": 4599, "ost": 23701, "vesmatter</w>": 47636, "botan": 12554, "polling</w>": 18024, "mortal</w>": 14680, "mocked</w>": 47400, "maharaj</w>": 38488, "haram</w>": 22950, "unprece": 23054, "inian</w>": 36638, "aman": 19890, "fro": 626, "skipped</w>": 40639, "uq</w>": 39591, "thinking</w>": 3291, "cadets</w>": 19160, "jar": 5120, "breathing</w>": 14959, "blogpost</w>": 41842, "axle</w>": 39003, "schild</w>": 32148, "karina</w>": 40250, "suspects</w>": 18265, "gou</w>": 36555, "nnnn</w>": 41420, "ðŁĻıðŁĻıðŁĻı</w>": 31702, "synergy</w>": 32012, "bett</w>": 20489, "dric</w>": 23448, "gather": 36345, "promen": 33578, "expectation</w>": 34273, "anor": 13243, "heated</w>": 17057, "ula</w>": 9506, "ali</w>": 3558, "rowling</w>": 29371, "postponed</w>": 25097, "~~~</w>": 32472, "macbeth</w>": 36321, "honor": 9206, "malware</w>": 24153, "emer</w>": 25727, "succeed</w>": 13556, "ipad</w>": 7491, "et": 1169, "keywords</w>": 48122, "sweepstakes</w>": 25992, "ount</w>": 4172, "commits</w>": 20241, "quet</w>": 8513, "desire</w>": 11858, "spie": 28573, "blowout</w>": 34857, "wthr": 45269, "blu": 1263, "mmj</w>": 43015, "unicef</w>": 19259, "pois": 17008, "thday</w>": 37801, "scoll</w>": 44895, "alice": 23759, "craven</w>": 33625, "orton</w>": 37238, "weak</w>": 10128, "hume</w>": 38197, "cze": 12152, "sear": 1612, "lid": 39369, "mediter": 14194, "era</w>": 2072, "daa</w>": 32642, "aton</w>": 10012, "marcel": 17726, "govuk</w>": 28830, "sketch</w>": 5269, "dise": 4262,
[...]
